<unk>	0
<s>	0
</s>	0
<pad>	0
<bos>	0
<eos>	0
<sep>	0
▁a	-0
▁t	-1
▁i	-2
er	-3
en	-4
on	-5
st	-6
▁w	-7
▁.	-8
▁th	-9
om	-10
at	-11
▁s	-12
▁m	-13
▁c	-14
▁h	-15
ent	-16
ust	-17
in	-18
ou	-19
ion	-20
omer	-21
ustomer	-22
gent	-23
▁|	-24
▁b	-25
▁f	-26
it	-27
ot	-28
re	-29
ing	-30
▁d	-31
▁to	-32
ed	-33
▁g	-34
▁the	-35
or	-36
▁an	-37
▁l	-38
▁y	-39
▁my	-40
as	-41
ll	-42
ation	-43
▁it	-44
▁n	-45
▁p	-46
otion	-47
itu	-48
ituation	-49
motion	-50
▁customer	-51
▁agent	-52
▁A	-53
▁C	-54
▁E	-55
▁S	-56
▁Agent	-57
▁Emotion	-58
▁Customer	-59
▁Situation	-60
▁o	-61
▁ha	-62
▁,	-63
an	-64
ar	-65
▁and	-66
▁was	-67
ve	-68
▁you	-69
▁that	-70
▁be	-71
ay	-72
▁!	-73
ri	-74
▁wh	-75
es	-76
▁in	-77
id	-78
et	-79
ow	-80
▁of	-81
▁e	-82
▁re	-83
▁for	-84
is	-85
el	-86
▁so	-87
gh	-88
▁?	-89
▁on	-90
oo	-91
le	-92
▁me	-93
▁is	-94
ver	-95
ad	-96
ld	-97
▁we	-98
out	-99
▁j	-100
im	-101
ic	-102
▁do	-103
all	-104
ke	-105
▁u	-106
al	-107
▁have	-108
ut	-109
▁st	-110
▁he	-111
ch	-112
▁sh	-113
▁ne	-114
pp	-115
ome	-116
end	-117
▁am	-118
▁k	-119
ith	-120
ght	-121
ally	-122
▁su	-123
▁li	-124
am	-125
se	-126
▁did	-127
▁go	-128
ere	-129
▁at	-130
▁with	-131
ly	-132
op	-133
▁but	-134
▁ye	-135
ck	-136
▁when	-137
ir	-138
▁wor	-139
▁get	-140
ould	-141
ul	-142
ood	-143
one	-144
sed	-145
▁ab	-146
▁not	-147
▁they	-148
ill	-149
▁fe	-150
▁can	-151
▁just	-152
very	-153
her	-154
▁had	-155
▁out	-156
ce	-157
ro	-158
ast	-159
riend	-160
nd	-161
▁what	-162
▁really	-163
▁she	-164
▁are	-165
ry	-166
▁up	-167
▁ex	-168
▁tim	-169
ful	-170
ra	-171
▁al	-172
ous	-173
▁some	-174
▁good	-175
▁no	-176
▁work	-177
th	-178
▁lo	-179
▁about	-180
▁se	-181
ter	-182
other	-183
▁got	-184
▁like	-185
▁all	-186
▁as	-187
▁time	-188
▁feel	-189
▁ch	-190
ant	-191
▁friend	-192
rou	-193
▁her	-194
ct	-195
▁this	-196
day	-197
▁kn	-198
ate	-199
art	-200
ore	-201
▁day	-202
▁happ	-203
▁con	-204
▁hop	-205
un	-206
king	-207
▁too	-208
au	-209
▁been	-210
▁going	-211
are	-212
ake	-213
ek	-214
▁pre	-215
way	-216
oy	-217
▁de	-218
▁week	-219
▁hope	-220
▁oh	-221
▁fr	-222
▁ba	-223
ur	-224
il	-225
ind	-226
▁know	-227
▁will	-228
▁one	-229
▁car	-230
▁how	-231
▁very	-232
▁year	-233
▁new	-234
and	-235
ight	-236
▁him	-237
▁af	-238
▁thin	-239
▁pl	-240
▁your	-241
fe	-242
▁them	-243
ge	-244
▁don	-245
▁would	-246
▁there	-247
▁gr	-248
▁le	-249
▁well	-250
▁see	-251
ice	-252
ound	-253
ool	-254
▁now	-255
▁any	-256
ty	-257
▁im	-258
reat	-259
▁from	-260
ie	-261
▁think	-262
▁te	-263
▁dis	-264
▁lon	-265
▁last	-266
ame	-267
▁every	-268
▁gu	-269
▁mo	-270
ive	-271
▁com	-272
▁were	-273
ely	-274
▁sa	-275
▁want	-276
▁back	-277
ving	-278
▁yea	-279
▁tr	-280
us	-281
▁great	-282
▁sp	-283
▁or	-284
ble	-285
▁sc	-286
▁pe	-287
ess	-288
▁r	-289
▁didn	-290
▁fa	-291
▁jo	-292
res	-293
▁sur	-294
mb	-295
ared	-296
▁som	-297
ers	-298
our	-299
ven	-300
▁thou	-301
▁bad	-302
ting	-303
▁than	-304
▁other	-305
▁somet	-306
▁went	-307
▁exc	-308
▁could	-309
▁mad	-310
▁thing	-311
▁happy	-312
ied	-313
▁sure	-314
▁ri	-315
ited	-316
▁lot	-317
▁job	-318
pri	-319
▁ag	-320
hing	-321
▁kid	-322
▁old	-323
▁bet	-324
ard	-325
ak	-326
▁mu	-327
ways	-328
▁sch	-329
▁surpri	-330
▁dog	-331
▁v	-332
▁yes	-333
▁always	-334
▁har	-335
▁bec	-336
▁off	-337
▁peop	-338
▁over	-339
▁people	-340
▁co	-341
▁much	-342
▁his	-343
▁loo	-344
▁home	-345
▁wa	-346
▁hard	-347
▁aw	-348
▁yeah	-349
ep	-350
▁if	-351
ause	-352
▁school	-353
▁sad	-354
ster	-355
▁today	-356
▁nice	-357
ip	-358
ating	-359
elt	-360
▁man	-361
ated	-362
▁un	-363
▁felt	-364
▁cl	-365
ain	-366
▁fir	-367
▁excited	-368
▁wait	-369
ig	-370
▁never	-371
thing	-372
▁first	-373
▁int	-374
ily	-375
▁because	-376
ick	-377
elf	-378
▁has	-379
▁ter	-380
ort	-381
▁surprised	-382
▁happen	-383
ved	-384
▁app	-385
▁love	-386
ies	-387
▁terri	-388
os	-389
ious	-390
▁make	-391
ine	-392
▁someone	-393
▁friends	-394
▁imp	-395
▁who	-396
qu	-397
▁years	-398
▁after	-399
▁en	-400
irl	-401
▁night	-402
▁by	-403
▁start	-404
ouse	-405
▁girl	-406
▁br	-407
itt	-408
atch	-409
ish	-410
self	-411
▁fam	-412
assed	-413
ident	-414
own	-415
pe	-416
▁stu	-417
igh	-418
ked	-419
▁long	-420
▁sound	-421
int	-422
▁even	-423
ite	-424
ady	-425
▁try	-426
▁house	-427
▁more	-428
▁need	-429
▁hel	-430
▁life	-431
um	-432
roud	-433
▁pret	-434
▁proud	-435
▁right	-436
▁family	-437
ff	-438
▁ro	-439
▁ann	-440
▁should	-441
▁still	-442
▁help	-443
▁made	-444
▁pretty	-445
▁way	-446
ass	-447
▁fun	-448
▁tri	-449
▁rec	-450
▁kids	-451
▁pro	-452
▁litt	-453
▁thank	-454
▁little	-455
ppo	-456
ft	-457
▁sor	-458
▁fin	-459
▁cont	-460
▁part	-461
▁sorry	-462
ol	-463
▁mon	-464
▁won	-465
gry	-466
▁hear	-467
xt	-468
ile	-469
▁ke	-470
▁1	-471
▁something	-472
▁par	-473
▁best	-474
▁prep	-475
▁into	-476
▁take	-477
▁conf	-478
▁things	-479
ning	-480
▁its	-481
▁kind	-482
aught	-483
ach	-484
▁annoy	-485
▁away	-486
▁though	-487
ide	-488
▁fu	-489
▁trust	-490
▁why	-491
▁angry	-492
per	-493
raid	-494
▁comp	-495
▁next	-496
▁afraid	-497
▁wow	-498
▁bu	-499
▁getting	-500
▁qu	-501
de	-502
▁sounds	-503
friend	-504
ag	-505
▁our	-506
ose	-507
▁better	-508
▁does	-509
oney	-510
▁di	-511
▁play	-512
fied	-513
▁found	-514
ci	-515
▁money	-516
uck	-517
me	-518
▁saw	-519
eal	-520
▁then	-521
▁che	-522
ment	-523
▁prepared	-524
▁down	-525
▁mis	-526
▁us	-527
▁watch	-528
ressed	-529
▁weekend	-530
nt	-531
▁2	-532
round	-533
▁feeling	-534
ens	-535
▁month	-536
▁mom	-537
ently	-538
ild	-539
▁emb	-540
fore	-541
▁embar	-542
▁lonely	-543
row	-544
▁before	-545
▁son	-546
▁being	-547
▁confident	-548
aking	-549
▁anx	-550
akes	-551
▁ac	-552
ac	-553
▁may	-554
rough	-555
iz	-556
▁find	-557
▁days	-558
▁embarr	-559
▁must	-560
gust	-561
▁disa	-562
▁big	-563
▁jeal	-564
▁jealous	-565
▁pr	-566
wn	-567
▁myself	-568
▁disgust	-569
ateful	-570
▁annoyed	-571
▁while	-572
▁guil	-573
ace	-574
▁disappo	-575
▁grateful	-576
ree	-577
vie	-578
be	-579
amed	-580
sterday	-581
▁yesterday	-582
▁took	-583
ave	-584
▁guilty	-585
▁anxious	-586
urn	-587
▁terrified	-588
ents	-589
gic	-590
inted	-591
▁end	-592
▁impressed	-593
esome	-594
tic	-595
▁able	-596
ue	-597
▁scared	-598
lie	-599
▁pay	-600
stal	-601
▁daught	-602
rious	-603
▁recently	-604
▁sent	-605
▁awesome	-606
pt	-607
▁dri	-608
▁brother	-609
▁nostal	-610
▁their	-611
▁wi	-612
▁thought	-613
der	-614
▁disappointed	-615
▁hopeful	-616
▁tal	-617
▁keep	-618
▁ready	-619
▁around	-620
▁furious	-621
▁ner	-622
▁nostalgic	-623
▁cou	-624
ually	-625
mber	-626
▁through	-627
▁joy	-628
▁looking	-629
▁disgusted	-630
▁embarrassed	-631
▁ash	-632
▁miss	-633
▁only	-634
▁antic	-635
▁ra	-636
▁appre	-637
▁anticip	-638
▁wife	-639
▁everything	-640
▁wanted	-641
▁ashamed	-642
▁lol	-643
▁wal	-644
▁child	-645
▁dev	-646
▁where	-647
ity	-648
nder	-649
▁gl	-650
red	-651
▁sho	-652
▁sometim	-653
pect	-654
▁thats	-655
ary	-656
▁belie	-657
ha	-658
▁care	-659
▁sw	-660
▁daughter	-661
▁content	-662
▁few	-663
ensive	-664
▁let	-665
▁doing	-666
▁put	-667
▁having	-668
▁anticipating	-669
▁bl	-670
ental	-671
▁bir	-672
▁anything	-673
▁fl	-674
▁joyful	-675
▁ok	-676
▁ago	-677
▁maybe	-678
ough	-679
ward	-680
▁devast	-681
▁sin	-682
▁under	-683
ull	-684
ried	-685
▁came	-686
ew	-687
▁sometimes	-688
▁ph	-689
▁girlfriend	-690
▁plan	-691
▁left	-692
▁devastated	-693
▁luck	-694
▁wish	-695
bor	-696
▁sentim	-697
▁act	-698
▁again	-699
ost	-700
▁call	-701
orrow	-702
▁believe	-703
ack	-704
ist	-705
dy	-706
▁sentimental	-707
▁guy	-708
▁tra	-709
▁trusting	-710
ance	-711
▁since	-712
▁happened	-713
lle	-714
▁used	-715
▁rel	-716
az	-717
▁come	-718
▁makes	-719
age	-720
▁lost	-721
▁say	-722
▁caring	-723
▁tw	-724
▁3	-725
▁birth	-726
▁food	-727
▁neigh	-728
▁live	-729
cer	-730
vor	-731
▁hus	-732
▁show	-733
▁cat	-734
▁test	-735
ure	-736
get	-737
▁colle	-738
▁faith	-739
▁hate	-740
▁such	-741
▁ad	-742
▁many	-743
▁pers	-744
▁neighbor	-745
▁tell	-746
pped	-747
▁nerv	-748
▁glad	-749
▁told	-750
able	-751
▁ups	-752
▁nervous	-753
▁sm	-754
ng	-755
pl	-756
band	-757
▁once	-758
▁husband	-759
▁birthday	-760
▁bou	-761
ong	-762
▁done	-763
▁tom	-764
▁grad	-765
▁alone	-766
▁person	-767
▁reme	-768
▁high	-769
▁those	-770
▁same	-771
▁bro	-772
▁dr	-773
by	-774
▁ever	-775
ress	-776
▁upset	-777
▁bought	-778
ations	-779
▁inter	-780
▁remember	-781
▁res	-782
▁spe	-783
▁trying	-784
▁seem	-785
▁appreh	-786
▁cool	-787
▁grand	-788
ner	-789
▁apprehensive	-790
▁amaz	-791
ash	-792
▁look	-793
▁cle	-794
ult	-795
▁favor	-796
ss	-797
▁tomorrow	-798
mer	-799
▁wasn	-800
▁place	-801
▁college	-802
00	-803
▁coming	-804
▁vac	-805
cked	-806
▁bit	-807
▁acc	-808
▁fi	-809
▁si	-810
▁another	-811
▁dec	-812
▁real	-813
▁soon	-814
▁stay	-815
▁said	-816
▁here	-817
▁trip	-818
▁boy	-819
▁turn	-820
▁class	-821
▁super	-822
▁game	-823
ence	-824
▁parents	-825
▁mar	-826
ise	-827
orm	-828
ater	-829
▁party	-830
▁finally	-831
▁fo	-832
▁everyone	-833
ab	-834
ather	-835
▁faithful	-836
▁favorite	-837
▁two	-838
▁gi	-839
oth	-840
▁working	-841
▁ar	-842
▁5	-843
▁guess	-844
▁prom	-845
ang	-846
▁expect	-847
ase	-848
▁most	-849
full	-850
ook	-851
▁passed	-852
▁buy	-853
▁gro	-854
side	-855
▁amazing	-856
▁knew	-857
▁store	-858
ath	-859
fully	-860
most	-861
▁dad	-862
▁underst	-863
▁almost	-864
▁times	-865
▁vacation	-866
▁cra	-867
▁win	-868
▁po	-869
▁started	-870
ason	-871
view	-872
▁give	-873
▁terrible	-874
▁clean	-875
▁scary	-876
▁wr	-877
▁own	-878
gr	-879
▁hur	-880
▁baby	-881
▁ear	-882
▁eat	-883
▁understand	-884
ork	-885
▁rest	-886
▁months	-887
▁bus	-888
joy	-889
▁str	-890
▁hit	-891
▁enjoy	-892
so	-893
▁la	-894
▁meet	-895
▁mean	-896
ump	-897
oss	-898
▁haha	-899
leep	-900
▁mor	-901
ately	-902
▁sister	-903
▁least	-904
▁taking	-905
▁room	-906
▁weeks	-907
▁bre	-908
▁sto	-909
▁swe	-910
▁interview	-911
▁morning	-912
▁waiting	-913
ont	-914
▁cr	-915
▁nothing	-916
▁gave	-917
est	-918
▁actually	-919
▁diff	-920
▁haven	-921
▁without	-922
▁forward	-923
▁hor	-924
gether	-925
▁tried	-926
▁couldn	-927
▁together	-928
ap	-929
▁also	-930
▁young	-931
▁vis	-932
▁bo	-933
hip	-934
▁quite	-935
mor	-936
ten	-937
unch	-938
▁per	-939
▁run	-940
▁stuff	-941
▁4	-942
cial	-943
▁sick	-944
ned	-945
ple	-946
▁might	-947
act	-948
iting	-949
▁enough	-950
▁att	-951
▁died	-952
ail	-953
ich	-954
▁memor	-955
cks	-956
▁ide	-957
ball	-958
▁thanks	-959
▁pa	-960
▁sum	-961
▁okay	-962
ect	-963
▁moved	-964
▁el	-965
▁move	-966
ug	-967
▁leave	-968
▁ate	-969
▁unt	-970
▁yet	-971
▁movie	-972
▁order	-973
▁sleep	-974
▁def	-975
▁broke	-976
ange	-977
▁heard	-978
▁summer	-979
vers	-980
▁hour	-981
▁until	-982
▁pu	-983
▁sl	-984
▁cow	-985
▁idea	-986
▁forg	-987
▁cut	-988
▁thinking	-989
ition	-990
grat	-991
hood	-992
▁compan	-993
ord	-994
▁sk	-995
▁past	-996
▁exam	-997
▁congrat	-998
▁wonder	-999
▁ser	-1000
▁talk	-1001
▁grandm	-1002
▁hopefully	-1003
▁whole	-1004
▁worried	-1005
▁close	-1006
▁watching	-1007
ier	-1008
▁gradu	-1009
▁late	-1010
▁sec	-1011
▁doesn	-1012
▁front	-1013
ably	-1014
▁stud	-1015
fort	-1016
▁din	-1017
▁compl	-1018
ond	-1019
▁sn	-1020
▁mine	-1021
▁world	-1022
▁wrong	-1023
ire	-1024
▁else	-1025
▁lear	-1026
▁drive	-1027
▁ap	-1028
▁ended	-1029
▁these	-1030
▁op	-1031
ax	-1032
▁dont	-1033
ream	-1034
▁walking	-1035
▁defin	-1036
▁forgot	-1037
▁ton	-1038
▁prob	-1039
▁sweet	-1040
▁which	-1041
ctor	-1042
▁boyfriend	-1043
▁des	-1044
▁far	-1045
▁ret	-1046
▁door	-1047
▁cowork	-1048
▁outside	-1049
▁probably	-1050
▁company	-1051
▁phone	-1052
▁worked	-1053
▁seen	-1054
▁definit	-1055
▁heal	-1056
▁date	-1057
▁anyone	-1058
▁cant	-1059
izz	-1060
▁rem	-1061
▁hurt	-1062
▁memories	-1063
wh	-1064
▁pet	-1065
▁alre	-1066
▁couple	-1067
▁already	-1068
▁pizz	-1069
▁dinner	-1070
▁hu	-1071
▁eas	-1072
▁true	-1073
▁deal	-1074
ict	-1075
▁needed	-1076
▁definitely	-1077
▁shocked	-1078
▁pass	-1079
▁tick	-1080
zy	-1081
▁horri	-1082
▁accident	-1083
▁making	-1084
▁didnt	-1085
▁team	-1086
na	-1087
▁playing	-1088
▁mother	-1089
gn	-1090
▁pos	-1091
▁pizza	-1092
▁ent	-1093
▁asked	-1094
▁ho	-1095
ided	-1096
▁head	-1097
ger	-1098
ink	-1099
ience	-1100
▁town	-1101
ph	-1102
▁use	-1103
▁break	-1104
▁suppo	-1105
▁realiz	-1106
rew	-1107
▁driving	-1108
▁foot	-1109
▁inst	-1110
▁seems	-1111
▁hand	-1112
▁ext	-1113
▁import	-1114
▁pres	-1115
cially	-1116
▁exper	-1117
▁crazy	-1118
▁ran	-1119
▁spend	-1120
▁open	-1121
▁important	-1122
ions	-1123
pping	-1124
▁visit	-1125
▁min	-1126
▁both	-1127
uring	-1128
▁ticket	-1129
em	-1130
rant	-1131
▁lucky	-1132
▁promotion	-1133
▁em	-1134
▁boss	-1135
▁seeing	-1136
▁ins	-1137
▁happens	-1138
▁talking	-1139
als	-1140
▁10	-1141
ding	-1142
ars	-1143
▁es	-1144
ead	-1145
▁pick	-1146
▁gift	-1147
▁supp	-1148
▁study	-1149
▁doctor	-1150
▁decided	-1151
ves	-1152
itch	-1153
▁called	-1154
▁dogs	-1155
▁gets	-1156
ling	-1157
▁fast	-1158
▁restau	-1159
▁restaurant	-1160
▁tot	-1161
▁bring	-1162
▁reason	-1163
▁gone	-1164
▁usually	-1165
▁yourself	-1166
ered	-1167
▁sit	-1168
ject	-1169
▁met	-1170
rought	-1171
▁heart	-1172
up	-1173
▁sucks	-1174
ever	-1175
▁fri	-1176
▁apart	-1177
▁bed	-1178
▁health	-1179
▁situation	-1180
▁during	-1181
▁exciting	-1182
▁horrible	-1183
▁brought	-1184
▁each	-1185
ush	-1186
▁exp	-1187
▁stop	-1188
ans	-1189
▁gam	-1190
▁ev	-1191
▁pri	-1192
▁gon	-1193
▁ah	-1194
▁fix	-1195
▁card	-1196
▁count	-1197
▁change	-1198
▁road	-1199
ired	-1200
ces	-1201
ren	-1202
▁20	-1203
▁fine	-1204
▁imag	-1205
▁differ	-1206
unt	-1207
▁gonna	-1208
▁surprise	-1209
ank	-1210
▁agree	-1211
▁relax	-1212
les	-1213
▁hours	-1214
▁thankful	-1215
▁tough	-1216
▁tonight	-1217
blem	-1218
▁check	-1219
▁problem	-1220
▁married	-1221
illed	-1222
ys	-1223
erest	-1224
ia	-1225
sing	-1226
▁hoping	-1227
▁guys	-1228
▁gross	-1229
▁cour	-1230
▁espe	-1231
▁looked	-1232
▁free	-1233
▁wouldn	-1234
▁full	-1235
▁loved	-1236
ird	-1237
▁cam	-1238
▁teach	-1239
▁especially	-1240
▁ru	-1241
▁inc	-1242
bo	-1243
ert	-1244
▁pol	-1245
▁eating	-1246
▁pack	-1247
ount	-1248
more	-1249
▁water	-1250
▁worst	-1251
▁sat	-1252
▁inv	-1253
▁grow	-1254
▁interest	-1255
▁wonderful	-1256
oop	-1257
▁fell	-1258
▁news	-1259
lled	-1260
▁awful	-1261
▁anymore	-1262
▁del	-1263
ither	-1264
▁meeting	-1265
iet	-1266
ract	-1267
▁ask	-1268
▁fall	-1269
▁mind	-1270
iness	-1271
▁park	-1272
▁face	-1273
▁expecting	-1274
ons	-1275
▁pain	-1276
ark	-1277
▁relations	-1278
orn	-1279
ined	-1280
▁manag	-1281
▁minut	-1282
▁bill	-1283
▁paid	-1284
dd	-1285
▁rep	-1286
▁6	-1287
room	-1288
▁relationship	-1289
▁anim	-1290
▁imagine	-1291
▁supposed	-1292
▁stole	-1293
cept	-1294
▁starting	-1295
▁experience	-1296
▁football	-1297
where	-1298
ppy	-1299
▁lately	-1300
▁city	-1301
▁huge	-1302
▁isn	-1303
▁beach	-1304
fect	-1305
ining	-1306
ible	-1307
▁living	-1308
▁later	-1309
▁congratul	-1310
▁turned	-1311
▁coworker	-1312
▁children	-1313
▁childhood	-1314
▁grandmother	-1315
llow	-1316
▁ve	-1317
rist	-1318
▁cho	-1319
▁complet	-1320
▁watched	-1321
▁goes	-1322
▁dep	-1323
▁concer	-1324
▁exact	-1325
ased	-1326
▁kept	-1327
▁moving	-1328
▁near	-1329
▁totally	-1330
▁different	-1331
ken	-1332
▁tv	-1333
og	-1334
▁final	-1335
▁apartment	-1336
▁ir	-1337
▁pict	-1338
▁annoying	-1339
cess	-1340
ness	-1341
▁finish	-1342
ret	-1343
▁dro	-1344
▁worth	-1345
▁season	-1346
▁law	-1347
▁games	-1348
▁appl	-1349
fortun	-1350
air	-1351
vious	-1352
▁char	-1353
▁side	-1354
▁pregn	-1355
▁either	-1356
▁poop	-1357
▁walk	-1358
▁unfortun	-1359
▁bar	-1360
atter	-1361
▁sing	-1362
▁congratulations	-1363
▁caught	-1364
▁hot	-1365
oke	-1366
line	-1367
▁beh	-1368
▁pull	-1369
▁feels	-1370
▁often	-1371
▁remind	-1372
vies	-1373
cy	-1374
▁cake	-1375
▁father	-1376
ures	-1377
▁list	-1378
▁vide	-1379
▁grocer	-1380
▁movies	-1381
▁return	-1382
▁read	-1383
▁less	-1384
unk	-1385
▁studied	-1386
ower	-1387
▁cur	-1388
▁result	-1389
▁walked	-1390
▁fail	-1391
▁ordered	-1392
▁mus	-1393
▁spent	-1394
▁8	-1395
▁fore	-1396
ense	-1397
▁aff	-1398
▁rece	-1399
▁roll	-1400
▁lunch	-1401
vel	-1402
▁early	-1403
▁christ	-1404
▁med	-1405
▁ty	-1406
▁weird	-1407
▁appreci	-1408
▁fut	-1409
▁storm	-1410
▁special	-1411
ny	-1412
▁wind	-1413
▁exactly	-1414
▁set	-1415
itive	-1416
▁small	-1417
▁future	-1418
▁neighbors	-1419
ustr	-1420
▁cook	-1421
onest	-1422
▁light	-1423
ane	-1424
▁hang	-1425
▁word	-1426
reet	-1427
ying	-1428
ced	-1429
▁mid	-1430
mas	-1431
▁honest	-1432
ider	-1433
▁instead	-1434
▁mess	-1435
▁fight	-1436
▁present	-1437
br	-1438
▁truck	-1439
▁god	-1440
▁raise	-1441
bb	-1442
ne	-1443
lf	-1444
▁phot	-1445
▁trou	-1446
▁ste	-1447
iv	-1448
ross	-1449
▁partner	-1450
▁worry	-1451
▁christmas	-1452
▁younger	-1453
▁ref	-1454
▁lose	-1455
▁stress	-1456
ants	-1457
aring	-1458
▁entire	-1459
gg	-1460
form	-1461
▁adv	-1462
tery	-1463
▁easy	-1464
▁plans	-1465
▁point	-1466
▁diffic	-1467
▁lau	-1468
▁ple	-1469
▁afford	-1470
▁running	-1471
co	-1472
med	-1473
▁bunch	-1474
urch	-1475
▁business	-1476
▁cert	-1477
▁yard	-1478
▁weight	-1479
sh	-1480
▁comm	-1481
▁comes	-1482
▁quick	-1483
▁threw	-1484
▁behind	-1485
ical	-1486
▁coo	-1487
▁busy	-1488
▁seme	-1489
▁dream	-1490
▁three	-1491
▁helped	-1492
▁country	-1493
ivers	-1494
▁fly	-1495
▁iss	-1496
▁stand	-1497
▁moment	-1498
▁throw	-1499
▁frustr	-1500
▁shopping	-1501
▁difficult	-1502
▁street	-1503
▁project	-1504
▁doll	-1505
▁second	-1506
▁semester	-1507
led	-1508
▁book	-1509
▁paying	-1510
▁lottery	-1511
▁loc	-1512
▁sme	-1513
▁puppy	-1514
▁pregnant	-1515
▁state	-1516
▁worse	-1517
▁online	-1518
phew	-1519
▁nephew	-1520
▁math	-1521
▁extra	-1522
ates	-1523
▁dist	-1524
▁couldnt	-1525
▁course	-1526
ign	-1527
ues	-1528
▁cal	-1529
▁wed	-1530
▁fre	-1531
▁wom	-1532
▁wall	-1533
▁rain	-1534
ib	-1535
ative	-1536
▁jump	-1537
▁ride	-1538
not	-1539
▁mail	-1540
▁reg	-1541
▁window	-1542
▁grade	-1543
▁gotten	-1544
▁self	-1545
kes	-1546
▁deser	-1547
wards	-1548
▁music	-1549
lling	-1550
▁cons	-1551
▁mist	-1552
▁luckily	-1553
▁trouble	-1554
ugg	-1555
ffic	-1556
▁video	-1557
▁serious	-1558
if	-1559
ital	-1560
▁camp	-1561
▁works	-1562
ym	-1563
aut	-1564
▁older	-1565
▁others	-1566
ploy	-1567
▁une	-1568
▁dang	-1569
▁land	-1570
▁positive	-1571
▁half	-1572
ention	-1573
▁cannot	-1574
▁police	-1575
▁concert	-1576
ope	-1577
ming	-1578
▁girls	-1579
▁applied	-1580
▁box	-1581
▁laugh	-1582
ffe	-1583
irt	-1584
▁minutes	-1585
▁eng	-1586
▁ones	-1587
▁realized	-1588
▁graduated	-1589
ics	-1590
ors	-1591
less	-1592
▁event	-1593
▁inside	-1594
iece	-1595
▁chang	-1596
▁pants	-1597
▁studying	-1598
ised	-1599
ian	-1600
▁aww	-1601
▁base	-1602
▁sitting	-1603
▁expensive	-1604
▁poss	-1605
▁smart	-1606
▁treat	-1607
▁planning	-1608
▁drink	-1609
▁hair	-1610
▁finan	-1611
een	-1612
oud	-1613
▁gen	-1614
▁keeps	-1615
▁ey	-1616
▁bum	-1617
right	-1618
▁takes	-1619
▁support	-1620
cel	-1621
▁hum	-1622
▁planned	-1623
▁sim	-1624
▁coffe	-1625
▁forever	-1626
ived	-1627
▁played	-1628
▁area	-1629
▁accept	-1630
▁results	-1631
▁9	-1632
▁fig	-1633
▁cute	-1634
▁dent	-1635
▁coffee	-1636
▁manager	-1637
▁100	-1638
▁bath	-1639
▁interesting	-1640
ney	-1641
ory	-1642
▁hos	-1643
▁lots	-1644
rit	-1645
▁cous	-1646
▁hold	-1647
▁cousin	-1648
ud	-1649
gest	-1650
▁mil	-1651
▁hosp	-1652
▁born	-1653
▁traffic	-1654
▁completely	-1655
▁certain	-1656
▁pictures	-1657
aken	-1658
▁war	-1659
▁matter	-1660
▁cheated	-1661
▁accidentally	-1662
bs	-1663
io	-1664
aving	-1665
▁pract	-1666
▁envious	-1667
▁wedding	-1668
iced	-1669
▁bra	-1670
▁dead	-1671
▁step	-1672
ically	-1673
▁single	-1674
▁dark	-1675
▁looks	-1676
▁position	-1677
dle	-1678
body	-1679
▁catch	-1680
▁congrats	-1681
ric	-1682
ction	-1683
▁beaut	-1684
▁type	-1685
▁neighborhood	-1686
▁cry	-1687
▁chance	-1688
lier	-1689
▁abs	-1690
▁air	-1691
▁bas	-1692
▁fan	-1693
▁turns	-1694
▁fair	-1695
▁cloth	-1696
▁cred	-1697
▁learn	-1698
▁earlier	-1699
▁15	-1700
▁red	-1701
▁prop	-1702
▁local	-1703
▁grocery	-1704
▁name	-1705
▁funny	-1706
▁office	-1707
▁weather	-1708
ee	-1709
▁lied	-1710
▁quiet	-1711
▁dropped	-1712
▁leaving	-1713
urance	-1714
▁listen	-1715
▁clos	-1716
▁resp	-1717
▁grandma	-1718
▁ma	-1719
▁employ	-1720
▁follow	-1721
▁cost	-1722
▁swim	-1723
▁credit	-1724
ru	-1725
cle	-1726
olut	-1727
▁loud	-1728
▁safe	-1729
▁across	-1730
▁unfortunately	-1731
▁short	-1732
bt	-1733
ele	-1734
▁du	-1735
cking	-1736
▁beauti	-1737
▁worker	-1738
▁dra	-1739
pected	-1740
▁forget	-1741
▁everyday	-1742
▁age	-1743
▁tur	-1744
▁cancer	-1745
gs	-1746
▁trash	-1747
▁perfect	-1748
osed	-1749
▁ass	-1750
▁clothes	-1751
▁hom	-1752
▁hun	-1753
▁case	-1754
▁coast	-1755
▁tickets	-1756
▁compet	-1757
▁bathroom	-1758
▁ele	-1759
essed	-1760
▁woke	-1761
▁comput	-1762
ouch	-1763
▁middle	-1764
▁roller	-1765
▁realize	-1766
▁beautiful	-1767
▁insurance	-1768
ones	-1769
▁top	-1770
▁ugh	-1771
▁norm	-1772
▁hospital	-1773
use	-1774
▁appro	-1775
ike	-1776
▁cru	-1777
▁gym	-1778
▁curr	-1779
▁learned	-1780
▁7	-1781
▁absolut	-1782
▁suc	-1783
▁impress	-1784
▁bur	-1785
▁sub	-1786
▁starts	-1787
ual	-1788
arch	-1789
▁pot	-1790
▁poor	-1791
▁due	-1792
▁diet	-1793
▁cover	-1794
▁frustrating	-1795
ient	-1796
▁cor	-1797
▁lived	-1798
▁pooped	-1799
ings	-1800
▁unex	-1801
▁secret	-1802
▁ice	-1803
▁taken	-1804
▁received	-1805
▁quickly	-1806
▁rid	-1807
▁kinda	-1808
▁anyway	-1809
ime	-1810
▁bills	-1811
▁borrow	-1812
com	-1813
ior	-1814
sel	-1815
▁smash	-1816
ma	-1817
outh	-1818
ular	-1819
▁scr	-1820
▁band	-1821
▁line	-1822
▁build	-1823
▁finished	-1824
bl	-1825
▁z	-1826
▁30	-1827
ities	-1828
▁grou	-1829
▁wants	-1830
▁woman	-1831
▁telling	-1832
▁unexpected	-1833
olog	-1834
▁save	-1835
▁along	-1836
▁group	-1837
▁irrit	-1838
▁meal	-1839
▁rough	-1840
▁score	-1841
▁friday	-1842
▁missed	-1843
▁seemed	-1844
▁bud	-1845
▁liked	-1846
▁accom	-1847
▁broken	-1848
▁wallet	-1849
▁computer	-1850
▁absolutely	-1851
▁nu	-1852
▁beat	-1853
▁cats	-1854
▁crash	-1855
▁gener	-1856
▁knows	-1857
▁animals	-1858
sw	-1859
▁peace	-1860
▁yep	-1861
used	-1862
▁brand	-1863
▁roomm	-1864
▁tired	-1865
▁lady	-1866
▁pool	-1867
▁slow	-1868
▁sal	-1869
▁sever	-1870
oor	-1871
▁spr	-1872
ured	-1873
ishing	-1874
▁kitch	-1875
▁offered	-1876
pid	-1877
▁sy	-1878
▁sort	-1879
▁monday	-1880
▁healthy	-1881
▁kitchen	-1882
▁cup	-1883
▁disney	-1884
▁accompl	-1885
▁helping	-1886
▁scratch	-1887
▁add	-1888
▁col	-1889
▁bank	-1890
▁stuck	-1891
▁saving	-1892
▁parking	-1893
▁coworkers	-1894
▁aunt	-1895
▁shoes	-1896
▁smell	-1897
▁expected	-1898
ese	-1899
man	-1900
▁appreciate	-1901
edu	-1902
assing	-1903
book	-1904
▁dam	-1905
▁cash	-1906
▁black	-1907
▁offer	-1908
▁social	-1909
▁surger	-1910
▁relaxing	-1911
ipped	-1912
▁steal	-1913
▁pulled	-1914
▁dest	-1915
▁rand	-1916
▁repl	-1917
▁sund	-1918
▁tast	-1919
▁asking	-1920
▁growing	-1921
▁training	-1922
tle	-1923
▁av	-1924
cing	-1925
▁camping	-1926
▁missing	-1927
▁gas	-1928
▁sun	-1929
▁lives	-1930
▁accomplish	-1931
ial	-1932
rect	-1933
▁dou	-1934
iving	-1935
▁random	-1936
▁teacher	-1937
▁cleaning	-1938
ize	-1939
▁hey	-1940
▁ill	-1941
▁needs	-1942
▁shouldn	-1943
▁hol	-1944
▁failed	-1945
▁bother	-1946
▁stopped	-1947
erg	-1948
▁deg	-1949
▁deli	-1950
▁inde	-1951
▁given	-1952
▁photos	-1953
rol	-1954
▁50	-1955
▁rug	-1956
▁power	-1957
▁giving	-1958
▁dollars	-1959
▁surgery	-1960
▁aren	-1961
▁amount	-1962
▁animal	-1963
▁indeed	-1964
▁sunday	-1965
▁changed	-1966
▁comfort	-1967
▁emotion	-1968
▁opt	-1969
▁phys	-1970
▁rent	-1971
▁chick	-1972
▁helps	-1973
gan	-1974
uly	-1975
▁awh	-1976
▁arri	-1977
▁serv	-1978
▁crush	-1979
▁invited	-1980
ket	-1981
▁cele	-1982
▁ground	-1983
▁classes	-1984
▁pray	-1985
▁celebr	-1986
▁hi	-1987
▁parent	-1988
ged	-1989
▁thankfully	-1990
ps	-1991
ber	-1992
▁bag	-1993
▁mot	-1994
▁cars	-1995
▁publ	-1996
▁saying	-1997
▁trusted	-1998
▁die	-1999
▁inf	-2000
▁intern	-2001
▁issues	-2002
▁stupid	-2003
▁cooking	-2004
▁reminded	-2005
vy	-2006
▁dish	-2007
▁rude	-2008
▁stayed	-2009
▁talked	-2010
▁cheating	-2011
▁control	-2012
ted	-2013
▁gh	-2014
▁fit	-2015
▁answ	-2016
▁awhile	-2017
▁church	-2018
▁noticed	-2019
▁success	-2020
iday	-2021
ssed	-2022
▁saved	-2023
ication	-2024
▁holiday	-2025
▁impressive	-2026
▁trump	-2027
▁become	-2028
▁problems	-2029
cus	-2030
▁ind	-2031
▁pat	-2032
ility	-2033
▁star	-2034
selves	-2035
▁cause	-2036
▁dress	-2037
▁snake	-2038
▁wanting	-2039
▁leg	-2040
▁cancel	-2041
lies	-2042
eless	-2043
▁drunk	-2044
▁degree	-2045
▁showed	-2046
▁attention	-2047
▁cruise	-2048
▁univers	-2049
aked	-2050
bbed	-2051
vest	-2052
▁lar	-2053
ision	-2054
umped	-2055
▁ball	-2056
▁reco	-2057
▁cream	-2058
▁coun	-2059
▁kill	-2060
▁loan	-2061
▁nope	-2062
▁perform	-2063
▁maj	-2064
▁spilled	-2065
▁honestly	-2066
▁eventually	-2067
iss	-2068
isters	-2069
▁piece	-2070
▁send	-2071
▁scare	-2072
▁brothers	-2073
oted	-2074
▁wast	-2075
▁losing	-2076
dden	-2077
▁gar	-2078
fying	-2079
▁wear	-2080
▁floor	-2081
▁speak	-2082
▁longer	-2083
▁strugg	-2084
▁enjoyed	-2085
▁quit	-2086
▁driver	-2087
▁mistake	-2088
▁complain	-2089
▁everywhere	-2090
▁lit	-2091
▁noise	-2092
▁promised	-2093
ified	-2094
▁flor	-2095
▁item	-2096
▁shows	-2097
▁service	-2098
▁sisters	-2099
ized	-2100
▁strang	-2101
▁stepped	-2102
▁roommate	-2103
col	-2104
ida	-2105
ili	-2106
▁ten	-2107
▁tor	-2108
intend	-2109
▁wasnt	-2110
▁easier	-2111
▁florida	-2112
▁whenever	-2113
▁happening	-2114
du	-2115
▁bon	-2116
▁trans	-2117
▁embarrassing	-2118
istic	-2119
▁lawn	-2120
▁fixed	-2121
▁stink	-2122
intendo	-2123
▁nintendo	-2124
ah	-2125
oring	-2126
▁ghost	-2127
▁riding	-2128
time	-2129
▁hon	-2130
▁wre	-2131
▁expl	-2132
▁shop	-2133
father	-2134
▁candy	-2135
▁alright	-2136
▁gra	-2137
▁spee	-2138
000	-2139
ments	-2140
▁chocol	-2141
▁hahaha	-2142
▁rese	-2143
▁touch	-2144
▁hurric	-2145
▁public	-2146
▁speech	-2147
▁deserve	-2148
mon	-2149
ccer	-2150
▁kno	-2151
▁opp	-2152
▁qual	-2153
▁blood	-2154
▁cheat	-2155
▁large	-2156
▁quest	-2157
▁shame	-2158
▁soccer	-2159
▁sudden	-2160
▁possible	-2161
▁returned	-2162
▁spending	-2163
▁grandfather	-2164
roy	-2165
▁ob	-2166
iety	-2167
icious	-2168
▁buying	-2169
▁goodness	-2170
▁stressful	-2171
ald	-2172
▁wer	-2173
▁bare	-2174
▁fing	-2175
▁plac	-2176
▁sign	-2177
▁bonus	-2178
▁death	-2179
▁choice	-2180
▁switch	-2181
▁ach	-2182
▁jobs	-2183
▁kick	-2184
▁meant	-2185
airs	-2186
▁ben	-2187
▁emp	-2188
▁pur	-2189
▁val	-2190
▁fear	-2191
▁prof	-2192
▁syst	-2193
▁truly	-2194
▁destroy	-2195
▁putting	-2196
to	-2197
con	-2198
▁fil	-2199
▁extre	-2200
▁graduate	-2201
antly	-2202
▁wood	-2203
▁buddy	-2204
▁major	-2205
▁satis	-2206
▁contin	-2207
key	-2208
oint	-2209
▁tour	-2210
▁nerve	-2211
▁strange	-2212
▁tripped	-2213
▁supplies	-2214
▁daughters	-2215
bies	-2216
issed	-2217
▁fire	-2218
▁number	-2219
▁system	-2220
▁research	-2221
▁financial	-2222
ell	-2223
▁attack	-2224
ado	-2225
▁cau	-2226
▁cre	-2227
▁loss	-2228
▁nast	-2229
▁pets	-2230
▁sense	-2231
▁using	-2232
▁knowing	-2233
▁package	-2234
▁baseball	-2235
▁presentation	-2236
▁gre	-2237
▁vom	-2238
▁cheap	-2239
▁however	-2240
▁disgusting	-2241
▁university	-2242
ix	-2243
▁adop	-2244
▁means	-2245
▁shirt	-2246
▁skill	-2247
▁figure	-2248
▁flight	-2249
▁accepted	-2250
no	-2251
its	-2252
pet	-2253
ters	-2254
▁bat	-2255
▁resc	-2256
▁stra	-2257
▁miles	-2258
▁opened	-2259
▁picked	-2260
▁contact	-2261
ror	-2262
▁18	-2263
ored	-2264
▁bird	-2265
▁eyes	-2266
▁teen	-2267
▁train	-2268
▁respons	-2269
▁bow	-2270
▁fault	-2271
▁speed	-2272
▁contest	-2273
land	-2274
▁eag	-2275
icking	-2276
▁current	-2277
▁himself	-2278
▁chocolate	-2279
▁competition	-2280
lo	-2281
oid	-2282
resh	-2283
▁spot	-2284
▁thri	-2285
▁ahead	-2286
▁nasty	-2287
ks	-2288
ops	-2289
uts	-2290
ency	-2291
itten	-2292
▁stinks	-2293
ze	-2294
▁ther	-2295
▁cried	-2296
▁empty	-2297
▁dating	-2298
▁grandp	-2299
▁partic	-2300
eld	-2301
▁cri	-2302
ering	-2303
▁gard	-2304
▁exams	-2305
▁paper	-2306
▁purch	-2307
▁chicken	-2308
yal	-2309
▁alive	-2310
▁cheese	-2311
▁strong	-2312
▁pleased	-2313
▁consider	-2314
ilar	-2315
▁lay	-2316
unity	-2317
▁mill	-2318
▁sand	-2319
▁apply	-2320
▁story	-2321
▁attend	-2322
▁cleaned	-2323
ade	-2324
fer	-2325
ses	-2326
ises	-2327
▁adm	-2328
idence	-2329
▁clear	-2330
▁relie	-2331
▁words	-2332
▁minute	-2333
▁notice	-2334
▁pissed	-2335
▁rather	-2336
▁anxiety	-2337
cc	-2338
ww	-2339
ote	-2340
riage	-2341
▁deep	-2342
▁fresh	-2343
ub	-2344
che	-2345
▁delicious	-2346
▁afterwards	-2347
▁bel	-2348
▁nerves	-2349
▁beg	-2350
▁bros	-2351
▁emer	-2352
▁four	-2353
▁badly	-2354
▁killed	-2355
▁staying	-2356
▁distance	-2357
▁learning	-2358
▁arg	-2359
▁low	-2360
▁pan	-2361
▁song	-2362
inking	-2363
▁adult	-2364
lloween	-2365
▁appoint	-2366
▁suppose	-2367
▁sleeping	-2368
▁det	-2369
▁babies	-2370
▁several	-2371
work	-2372
▁ive	-2373
▁share	-2374
▁sport	-2375
▁extrem	-2376
▁halloween	-2377
▁graduation	-2378
don	-2379
▁12	-2380
aged	-2381
vered	-2382
▁beer	-2383
▁shot	-2384
▁wont	-2385
▁loyal	-2386
▁amazed	-2387
▁against	-2388
▁hurricane	-2389
▁eff	-2390
▁main	-2391
▁torn	-2392
▁weren	-2393
▁garden	-2394
▁hungry	-2395
▁invest	-2396
▁winning	-2397
▁annivers	-2398
▁whatever	-2399
▁extremely	-2400
old	-2401
▁nur	-2402
▁occ	-2403
▁pee	-2404
ached	-2405
▁loves	-2406
▁ruined	-2407
▁swimming	-2408
ikes	-2409
▁arm	-2410
▁cold	-2411
▁fort	-2412
▁achie	-2413
▁items	-2414
▁barely	-2415
▁normal	-2416
▁winter	-2417
▁student	-2418
aster	-2419
mbers	-2420
▁beha	-2421
▁cond	-2422
▁hadn	-2423
▁herself	-2424
▁key	-2425
▁blue	-2426
▁fart	-2427
▁effort	-2428
▁flying	-2429
▁proper	-2430
▁report	-2431
▁towards	-2432
▁certainly	-2433
▁comfortable	-2434
▁et	-2435
▁cro	-2436
▁feed	-2437
▁sell	-2438
▁pound	-2439
▁talent	-2440
▁finding	-2441
hh	-2442
▁mc	-2443
▁smo	-2444
▁issue	-2445
▁spider	-2446
▁cookies	-2447
▁facebook	-2448
▁themselves	-2449
▁anniversary	-2450
▁appointment	-2451
ape	-2452
gress	-2453
olved	-2454
▁bull	-2455
▁post	-2456
▁bummer	-2457
▁heartb	-2458
▁checked	-2459
▁crashed	-2460
▁internet	-2461
▁irritated	-2462
▁terrifying	-2463
ama	-2464
ets	-2465
nam	-2466
ront	-2467
▁aut	-2468
▁squ	-2469
▁debt	-2470
▁hasn	-2471
▁lead	-2472
▁tree	-2473
coming	-2474
▁carpet	-2475
▁satisfied	-2476
pper	-2477
▁fact	-2478
▁impro	-2479
▁asleep	-2480
▁filled	-2481
▁stranger	-2482
▁alb	-2483
▁jer	-2484
▁sou	-2485
▁grew	-2486
▁sold	-2487
ging	-2488
▁tex	-2489
▁travel	-2490
▁careful	-2491
▁drinking	-2492
▁tax	-2493
unted	-2494
▁gold	-2495
▁text	-2496
▁couch	-2497
▁emerg	-2498
▁glass	-2499
▁photo	-2500
▁managed	-2501
mm	-2502
ear	-2503
▁40	-2504
▁er	-2505
come	-2506
▁sky	-2507
▁cart	-2508
▁mort	-2509
▁stom	-2510
▁court	-2511
▁trave	-2512
▁manage	-2513
▁decision	-2514
▁homeless	-2515
▁visiting	-2516
▁lic	-2517
▁scre	-2518
▁toys	-2519
▁const	-2520
▁decent	-2521
▁mostly	-2522
▁hearing	-2523
▁picture	-2524
▁prepare	-2525
▁somewhere	-2526
▁unfortunate	-2527
den	-2528
ums	-2529
vent	-2530
▁bike	-2531
▁body	-2532
▁pays	-2533
▁allow	-2534
▁packed	-2535
▁places	-2536
▁replace	-2537
▁promoted	-2538
amp	-2539
▁om	-2540
▁begin	-2541
▁color	-2542
▁profess	-2543
erc	-2544
▁id	-2545
▁ya	-2546
▁lie	-2547
▁spo	-2548
▁human	-2549
▁inform	-2550
▁jumped	-2551
▁reading	-2552
▁25	-2553
▁ign	-2554
▁drug	-2555
▁feet	-2556
▁gosh	-2557
▁apolog	-2558
▁incred	-2559
ices	-2560
ptop	-2561
▁boo	-2562
▁egg	-2563
▁laptop	-2564
▁marriage	-2565
▁stressed	-2566
▁emotional	-2567
ta	-2568
irty	-2569
▁nat	-2570
▁drove	-2571
▁process	-2572
▁anywhere	-2573
▁feelings	-2574
▁uh	-2575
donald	-2576
▁haunted	-2577
▁stomach	-2578
▁wearing	-2579
▁groceries	-2580
ats	-2581
olen	-2582
▁mall	-2583
▁organ	-2584
▁danger	-2585
▁fortun	-2586
▁handle	-2587
▁building	-2588
lew	-2589
iest	-2590
port	-2591
▁vet	-2592
▁wra	-2593
▁burn	-2594
▁rock	-2595
▁says	-2596
▁exerc	-2597
▁fired	-2598
▁satur	-2599
▁table	-2600
dge	-2601
let	-2602
und	-2603
▁art	-2604
▁gun	-2605
▁flow	-2606
▁wake	-2607
▁flood	-2608
imistic	-2609
▁dentist	-2610
▁basement	-2611
▁shouldnt	-2612
bling	-2613
▁dumb	-2614
▁schol	-2615
▁respect	-2616
▁pop	-2617
ument	-2618
▁hell	-2619
▁push	-2620
▁creep	-2621
▁grown	-2622
▁memory	-2623
▁mcdonald	-2624
▁seriously	-2625
ube	-2626
▁fat	-2627
▁laz	-2628
▁hands	-2629
▁stick	-2630
ien	-2631
▁ca	-2632
▁hea	-2633
▁men	-2634
▁six	-2635
▁betw	-2636
▁toil	-2637
▁gifts	-2638
▁twice	-2639
▁yelled	-2640
▁fingers	-2641
▁turning	-2642
fl	-2643
agn	-2644
ains	-2645
gram	-2646
▁omg	-2647
▁sug	-2648
▁tem	-2649
▁thr	-2650
▁drop	-2651
▁honor	-2652
▁level	-2653
▁niece	-2654
▁uncle	-2655
▁dollar	-2656
▁calling	-2657
▁coaster	-2658
▁drivers	-2659
▁reminds	-2660
▁approved	-2661
▁saturday	-2662
▁16	-2663
▁200	-2664
▁vol	-2665
▁disc	-2666
▁pair	-2667
▁requ	-2668
arship	-2669
▁bummed	-2670
▁closed	-2671
▁opport	-2672
▁regret	-2673
▁between	-2674
▁confidence	-2675
▁optimistic	-2676
ef	-2677
ins	-2678
astic	-2679
ended	-2680
▁stor	-2681
▁divor	-2682
▁plane	-2683
▁account	-2684
▁medical	-2685
▁upcoming	-2686
▁13	-2687
ague	-2688
▁yup	-2689
▁note	-2690
▁race	-2691
▁award	-2692
▁doubt	-2693
▁likes	-2694
▁bright	-2695
▁fishing	-2696
▁moments	-2697
▁scholarship	-2698
oof	-2699
ued	-2700
kward	-2701
▁lazy	-2702
▁shel	-2703
▁tech	-2704
inting	-2705
▁mouth	-2706
▁reward	-2707
▁convers	-2708
▁workers	-2709
▁bot	-2710
chool	-2711
▁clim	-2712
▁fant	-2713
▁rush	-2714
▁gives	-2715
▁career	-2716
▁cooked	-2717
▁grades	-2718
▁scream	-2719
▁toilet	-2720
▁million	-2721
▁destroyed	-2722
▁emergency	-2723
sy	-2724
bron	-2725
▁inj	-2726
▁sol	-2727
▁york	-2728
▁board	-2729
▁boring	-2730
▁fiance	-2731
▁lebron	-2732
▁awkward	-2733
▁hanging	-2734
▁students	-2735
ove	-2736
ibly	-2737
nect	-2738
▁eye	-2739
▁match	-2740
▁advice	-2741
▁became	-2742
▁messed	-2743
▁shower	-2744
▁taught	-2745
▁bey	-2746
▁bri	-2747
▁dude	-2748
▁avoid	-2749
▁doesnt	-2750
▁license	-2751
bit	-2752
▁da	-2753
ator	-2754
ened	-2755
yard	-2756
▁tip	-2757
▁unf	-2758
▁alth	-2759
▁chat	-2760
▁motiv	-2761
▁south	-2762
▁harder	-2763
▁program	-2764
▁although	-2765
cif	-2766
els	-2767
ries	-2768
▁lake	-2769
▁plus	-2770
▁blame	-2771
▁blast	-2772
▁books	-2773
▁cance	-2774
▁elect	-2775
▁sandw	-2776
▁biggest	-2777
▁involved	-2778
▁relative	-2779
▁following	-2780
how	-2781
aper	-2782
itude	-2783
▁liter	-2784
▁mount	-2785
▁recip	-2786
▁stolen	-2787
▁depressed	-2788
cul	-2789
eric	-2790
ances	-2791
asing	-2792
▁gotta	-2793
▁produ	-2794
▁americ	-2795
▁brings	-2796
▁eagles	-2797
▁fright	-2798
▁horror	-2799
▁specif	-2800
▁correct	-2801
▁keeping	-2802
▁sandwich	-2803
▁dangerous	-2804
ai	-2805
od	-2806
ilt	-2807
yle	-2808
▁ed	-2809
▁201	-2810
ights	-2811
roken	-2812
▁fish	-2813
▁babys	-2814
▁focus	-2815
artment	-2816
▁headed	-2817
▁within	-2818
▁flowers	-2819
▁normally	-2820
▁heartbroken	-2821
arm	-2822
▁gri	-2823
▁alot	-2824
▁calm	-2825
▁five	-2826
▁insp	-2827
▁reun	-2828
▁dirty	-2829
▁pride	-2830
▁yikes	-2831
▁answer	-2832
▁burger	-2833
▁crying	-2834
▁kitten	-2835
▁therap	-2836
▁grossed	-2837
▁similar	-2838
▁particular	-2839
▁performance	-2840
acks	-2841
▁etc	-2842
▁poke	-2843
▁rare	-2844
▁camer	-2845
▁shoot	-2846
▁wreck	-2847
▁tournam	-2848
▁experien	-2849
▁personal	-2850
oc	-2851
▁cu	-2852
▁ow	-2853
▁neg	-2854
▁keys	-2855
▁spray	-2856
▁skills	-2857
▁spring	-2858
▁achieve	-2859
▁tornado	-2860
asy	-2861
eth	-2862
ume	-2863
▁dem	-2864
edule	-2865
ology	-2866
▁crow	-2867
▁drag	-2868
▁whats	-2869
▁basket	-2870
▁refund	-2871
▁pokemon	-2872
▁station	-2873
▁grandpar	-2874
▁celebrate	-2875
▁disappointing	-2876
vis	-2877
wor	-2878
▁hy	-2879
enty	-2880
▁blo	-2881
▁pig	-2882
▁tre	-2883
▁surv	-2884
▁oldest	-2885
▁robbed	-2886
▁babysit	-2887
▁receive	-2888
▁wouldnt	-2889
▁backyard	-2890
▁breaking	-2891
▁mistakes	-2892
▁suddenly	-2893
ift	-2894
ler	-2895
oun	-2896
▁fed	-2897
▁odd	-2898
check	-2899
▁desp	-2900
▁nail	-2901
▁cross	-2902
▁diagn	-2903
ational	-2904
▁beyond	-2905
▁charge	-2906
▁spouse	-2907
▁arrived	-2908
▁confront	-2909
▁laughing	-2910
▁uns	-2911
itted	-2912
▁hide	-2913
▁moms	-2914
▁lights	-2915
▁literally	-2916
iod	-2917
xic	-2918
▁19	-2919
▁desk	-2920
▁prov	-2921
▁landl	-2922
▁react	-2923
▁depend	-2924
▁period	-2925
▁shelter	-2926
▁paycheck	-2927
aw	-2928
▁14	-2929
ergy	-2930
icer	-2931
▁jud	-2932
▁goal	-2933
▁crowd	-2934
▁review	-2935
▁waited	-2936
▁depress	-2937
▁explain	-2938
▁freaked	-2939
▁letting	-2940
▁visited	-2941
▁landlord	-2942
▁boat	-2943
▁tend	-2944
▁tooth	-2945
▁fridge	-2946
▁relate	-2947
▁straight	-2948
ines	-2949
▁cir	-2950
▁uni	-2951
ising	-2952
▁yout	-2953
▁carry	-2954
▁field	-2955
▁hated	-2956
▁pleas	-2957
▁space	-2958
▁closer	-2959
▁market	-2960
▁rescue	-2961
▁volunt	-2962
▁doctors	-2963
▁coasters	-2964
▁question	-2965
▁constantly	-2966
lu	-2967
ety	-2968
ides	-2969
lish	-2970
▁ant	-2971
▁mag	-2972
iders	-2973
ulous	-2974
▁mood	-2975
giving	-2976
▁easily	-2977
▁simple	-2978
▁stoked	-2979
▁somehow	-2980
▁subject	-2981
▁volunte	-2982
▁practice	-2983
▁currently	-2984
▁thanksgiving	-2985
▁tin	-2986
iling	-2987
▁behav	-2988
▁white	-2989
▁yours	-2990
▁calcul	-2991
▁closet	-2992
▁except	-2993
▁havent	-2994
▁noises	-2995
▁teenag	-2996
▁helpful	-2997
▁vomited	-2998
▁continue	-2999
▁randomly	-3000
▁cancelled	-3001
bby	-3002
icle	-3003
ites	-3004
▁bowl	-3005
▁furn	-3006
▁ring	-3007
▁steps	-3008
▁third	-3009
▁acting	-3010
▁please	-3011
▁hitting	-3012
▁delivery	-3013
ato	-3014
▁mix	-3015
ional	-3016
▁shock	-3017
▁supri	-3018
▁evening	-3019
▁laughed	-3020
▁passing	-3021
▁remembered	-3022
atic	-3023
care	-3024
medi	-3025
▁edu	-3026
▁sen	-3027
▁spl	-3028
▁veg	-3029
▁roof	-3030
▁brown	-3031
▁creat	-3032
▁addict	-3033
▁immedi	-3034
▁smelled	-3035
▁stealing	-3036
▁purchased	-3037
ery	-3038
thy	-3039
cake	-3040
fast	-3041
illy	-3042
board	-3043
urity	-3044
▁heat	-3045
▁appar	-3046
▁bless	-3047
▁loose	-3048
▁mexic	-3049
▁hardly	-3050
▁sports	-3051
▁improve	-3052
▁youtube	-3053
▁successful	-3054
ots	-3055
read	-3056
▁rot	-3057
▁typ	-3058
▁whe	-3059
apers	-3060
iture	-3061
▁butt	-3062
▁educ	-3063
▁jerk	-3064
▁mile	-3065
▁tire	-3066
▁ways	-3067
▁becom	-3068
▁track	-3069
ilities	-3070
▁bigger	-3071
▁engine	-3072
▁pounds	-3073
▁progress	-3074
▁concerned	-3075
▁furniture	-3076
▁conversation	-3077
▁grandparents	-3078
ays	-3079
rage	-3080
icing	-3081
▁craw	-3082
▁milk	-3083
▁email	-3084
▁woods	-3085
▁nearly	-3086
▁nobody	-3087
▁prefer	-3088
▁afterno	-3089
▁slipped	-3090
▁throwing	-3091
▁apparently	-3092
ckey	-3093
▁000	-3094
▁awe	-3095
▁cas	-3096
▁hid	-3097
igned	-3098
▁jack	-3099
▁amuse	-3100
▁techn	-3101
▁caused	-3102
▁repair	-3103
▁ripped	-3104
▁picking	-3105
▁regular	-3106
▁spiders	-3107
▁attitude	-3108
▁complete	-3109
▁deserved	-3110
▁afternoon	-3111
▁amusement	-3112
▁basically	-3113
▁basketball	-3114
▁opportunity	-3115
he	-3116
ms	-3117
bly	-3118
back	-3119
▁rat	-3120
ether	-3121
▁conv	-3122
▁none	-3123
▁grass	-3124
▁polit	-3125
▁total	-3126
▁waste	-3127
▁affect	-3128
▁charac	-3129
▁lesson	-3130
▁letter	-3131
▁nights	-3132
▁pumped	-3133
▁product	-3134
▁security	-3135
▁sometime	-3136
▁breakfast	-3137
▁tournament	-3138
▁information	-3139
urs	-3140
▁11	-3141
ames	-3142
▁ath	-3143
▁tas	-3144
gging	-3145
▁shut	-3146
▁todd	-3147
▁wash	-3148
▁direct	-3149
▁invite	-3150
▁cashier	-3151
▁divorce	-3152
▁patient	-3153
▁therapy	-3154
▁listening	-3155
▁ju	-3156
cent	-3157
▁toe	-3158
▁toy	-3159
▁blow	-3160
▁flat	-3161
▁gate	-3162
▁lane	-3163
▁youn	-3164
▁known	-3165
▁owner	-3166
▁price	-3167
▁teeth	-3168
▁tests	-3169
iculous	-3170
▁burned	-3171
▁damage	-3172
▁farted	-3173
▁lovely	-3174
▁unless	-3175
▁attract	-3176
▁covered	-3177
▁physics	-3178
▁fantastic	-3179
▁struggling	-3180
what	-3181
▁dan	-3182
▁hes	-3183
▁net	-3184
▁veh	-3185
under	-3186
▁bugs	-3187
▁cards	-3188
▁drank	-3189
▁miser	-3190
▁press	-3191
▁drives	-3192
▁heights	-3193
▁applying	-3194
▁rollerco	-3195
▁youngest	-3196
▁graduating	-3197
▁immediately	-3198
eng	-3199
icy	-3200
▁je	-3201
bage	-3202
▁bal	-3203
▁ris	-3204
▁tho	-3205
▁cell	-3206
▁dance	-3207
ibility	-3208
▁dreams	-3209
▁garage	-3210
▁despite	-3211
▁english	-3212
▁enjoying	-3213
▁condition	-3214
▁frustrated	-3215
▁interested	-3216
▁90	-3217
here	-3218
ening	-3219
▁flew	-3220
▁nose	-3221
▁prin	-3222
▁tiny	-3223
ushing	-3224
▁above	-3225
▁occas	-3226
▁plant	-3227
▁women	-3228
▁abused	-3229
▁belong	-3230
▁hockey	-3231
▁wasted	-3232
▁crossed	-3233
▁general	-3234
▁holding	-3235
▁nowhere	-3236
▁whether	-3237
▁speeding	-3238
min	-3239
mare	-3240
mart	-3241
▁nap	-3242
▁repe	-3243
▁sale	-3244
▁till	-3245
▁attic	-3246
▁eaten	-3247
▁fully	-3248
▁media	-3249
▁sales	-3250
▁taste	-3251
▁dishes	-3252
▁relief	-3253
▁engaged	-3254
▁raining	-3255
▁calculus	-3256
▁holidays	-3257
▁supervis	-3258
go	-3259
uth	-3260
cket	-3261
▁row	-3262
▁saf	-3263
▁dump	-3264
▁neck	-3265
▁freak	-3266
▁mower	-3267
▁athlet	-3268
▁senior	-3269
▁entered	-3270
▁figured	-3271
▁employee	-3272
▁speaking	-3273
ky	-3274
ayed	-3275
ific	-3276
kely	-3277
conom	-3278
▁awww	-3279
▁rode	-3280
▁wild	-3281
▁breat	-3282
▁chall	-3283
▁stage	-3284
▁texas	-3285
▁vegas	-3286
▁econom	-3287
▁energy	-3288
▁garbage	-3289
▁reunion	-3290
▁selling	-3291
▁peaceful	-3292
▁somewhat	-3293
▁teaching	-3294
▁mortified	-3295
hol	-3296
▁ep	-3297
eral	-3298
haps	-3299
whel	-3300
▁500	-3301
▁cop	-3302
▁mow	-3303
▁oil	-3304
ished	-3305
▁chem	-3306
▁peed	-3307
▁rele	-3308
▁skin	-3309
▁disco	-3310
▁flies	-3311
▁lefto	-3312
▁lying	-3313
▁purse	-3314
▁double	-3315
▁perhaps	-3316
▁stories	-3317
▁ridiculous	-3318
▁accomplished	-3319
aced	-3320
▁lif	-3321
▁lim	-3322
▁mat	-3323
▁pie	-3324
▁til	-3325
cohol	-3326
sters	-3327
▁cand	-3328
▁hist	-3329
▁onto	-3330
▁drugs	-3331
▁guard	-3332
▁intro	-3333
▁creepy	-3334
▁decide	-3335
▁unable	-3336
▁adopted	-3337
▁alcohol	-3338
▁crushed	-3339
▁kinderg	-3340
▁knocked	-3341
▁argument	-3342
▁specific	-3343
▁wracking	-3344
▁mcdonalds	-3345
▁miserable	-3346
▁nightmare	-3347
▁supervisor	-3348
orch	-3349
akers	-3350
ients	-3351
otect	-3352
▁draw	-3353
▁soft	-3354
▁ditch	-3355
▁parts	-3356
▁blamed	-3357
▁ending	-3358
▁higher	-3359
▁parked	-3360
▁recipe	-3361
▁retire	-3362
▁bedroom	-3363
▁behavior	-3364
▁somebody	-3365
▁practicing	-3366
cri	-3367
ino	-3368
ages	-3369
erly	-3370
ural	-3371
▁ham	-3372
▁exce	-3373
▁mach	-3374
▁vacu	-3375
▁climb	-3376
▁goals	-3377
▁uncom	-3378
▁drinks	-3379
▁league	-3380
▁loving	-3381
▁series	-3382
▁blessed	-3383
▁vehicle	-3384
▁borrowed	-3385
▁exercise	-3386
▁diagnosed	-3387
▁irritating	-3388
gra	-3389
omb	-3390
▁bun	-3391
cious	-3392
▁held	-3393
▁jail	-3394
▁skyd	-3395
▁snow	-3396
▁alarm	-3397
▁locked	-3398
▁airport	-3399
▁members	-3400
▁appreciated	-3401
iled	-3402
ires	-3403
▁cab	-3404
▁haw	-3405
▁ohh	-3406
▁agre	-3407
▁cent	-3408
▁kiss	-3409
▁laid	-3410
▁meat	-3411
stairs	-3412
▁deter	-3413
▁earth	-3414
▁mater	-3415
▁motor	-3416
▁corner	-3417
▁happier	-3418
▁protect	-3419
▁canceled	-3420
▁everytime	-3421
ls	-3422
my	-3423
que	-3424
▁enc	-3425
▁jun	-3426
▁rad	-3427
▁ram	-3428
▁boys	-3429
▁neat	-3430
▁hired	-3431
▁hotel	-3432
▁hurts	-3433
▁steak	-3434
▁traum	-3435
▁albums	-3436
▁history	-3437
▁pregnan	-3438
▁followed	-3439
▁perfectly	-3440
▁preparing	-3441
▁department	-3442
▁financially	-3443
▁remembering	-3444
af	-3445
ival	-3446
▁ski	-3447
▁wel	-3448
iliar	-3449
izing	-3450
night	-3451
▁warm	-3452
▁bread	-3453
▁fence	-3454
▁wrote	-3455
▁lakers	-3456
▁peeved	-3457
▁search	-3458
▁walmart	-3459
▁overwhel	-3460
▁questions	-3461
▁friendship	-3462
▁nah	-3463
▁pit	-3464
ained	-3465
arten	-3466
▁bell	-3467
▁dece	-3468
▁priv	-3469
▁sooo	-3470
▁adopt	-3471
▁hawai	-3472
▁prize	-3473
▁shift	-3474
▁sugar	-3475
▁swear	-3476
▁plenty	-3477
▁raised	-3478
▁charged	-3479
▁praying	-3480
▁thrones	-3481
▁schedule	-3482
▁thrilled	-3483
▁traveling	-3484
▁interviews	-3485
▁accomplishment	-3486
rop	-3487
▁vo	-3488
iring	-3489
▁join	-3490
▁beard	-3491
▁homes	-3492
▁plays	-3493
▁porch	-3494
▁punch	-3495
▁agreed	-3496
▁humili	-3497
▁record	-3498
▁signed	-3499
▁vacuum	-3500
▁hurting	-3501
▁science	-3502
▁sibling	-3503
▁education	-3504
▁president	-3505
▁cheesecake	-3506
▁21	-3507
chan	-3508
▁ace	-3509
▁crap	-3510
▁ouch	-3511
▁slam	-3512
▁cheer	-3513
▁recom	-3514
▁stray	-3515
▁sweat	-3516
▁likely	-3517
▁snacks	-3518
▁falling	-3519
▁quality	-3520
▁trained	-3521
▁driveway	-3522
amas	-3523
gers	-3524
▁doc	-3525
▁kit	-3526
▁lbs	-3527
▁nor	-3528
▁pun	-3529
▁ren	-3530
▁sus	-3531
▁wet	-3532
inder	-3533
▁dire	-3534
▁lock	-3535
▁size	-3536
▁blank	-3537
▁giant	-3538
▁heavy	-3539
▁reach	-3540
▁shape	-3541
▁landed	-3542
▁recomm	-3543
▁opening	-3544
▁believed	-3545
▁employed	-3546
▁beginning	-3547
▁practiced	-3548
▁pregnancy	-3549
▁screaming	-3550
ey	-3551
ero	-3552
ett	-3553
ison	-3554
wise	-3555
▁bug	-3556
▁est	-3557
▁non	-3558
▁film	-3559
▁hall	-3560
▁hund	-3561
▁acted	-3562
▁fancy	-3563
▁convin	-3564
▁fairly	-3565
▁hiking	-3566
▁instru	-3567
▁mechan	-3568
▁scored	-3569
fortable	-3570
▁obvious	-3571
▁promise	-3572
▁recover	-3573
▁shining	-3574
▁property	-3575
▁skydiving	-3576
ann	-3577
ari	-3578
eez	-3579
ute	-3580
ship	-3581
▁den	-3582
▁las	-3583
▁cher	-3584
▁fond	-3585
▁guit	-3586
▁heck	-3587
▁hous	-3588
▁mult	-3589
▁rely	-3590
▁soup	-3591
▁suff	-3592
asters	-3593
icated	-3594
▁built	-3595
▁cared	-3596
▁potty	-3597
▁style	-3598
▁trail	-3599
▁trick	-3600
▁truth	-3601
▁backed	-3602
▁dumped	-3603
▁screen	-3604
▁storms	-3605
▁relaxed	-3606
▁checking	-3607
▁kindergarten	-3608
da	-3609
box	-3610
pack	-3611
▁oce	-3612
light	-3613
▁club	-3614
▁damn	-3615
▁ends	-3616
▁mass	-3617
▁pigs	-3618
▁shes	-3619
▁sons	-3620
▁suck	-3621
▁whoa	-3622
orting	-3623
▁calls	-3624
▁judge	-3625
▁kinds	-3626
▁knock	-3627
▁france	-3628
▁smooth	-3629
▁videos	-3630
▁funeral	-3631
▁hundred	-3632
▁machine	-3633
▁mention	-3634
▁overall	-3635
▁payment	-3636
▁yelling	-3637
▁bringing	-3638
▁pressure	-3639
▁upsetting	-3640
▁incredible	-3641
▁appreciative	-3642
aly	-3643
vid	-3644
▁ge	-3645
▁flu	-3646
▁gig	-3647
▁ket	-3648
▁buff	-3649
▁cops	-3650
▁form	-3651
▁load	-3652
▁rout	-3653
▁seat	-3654
▁span	-3655
▁stri	-3656
▁upon	-3657
▁bored	-3658
▁spoke	-3659
▁value	-3660
▁advant	-3661
▁guitar	-3662
▁injured	-3663
▁negative	-3664
▁occasion	-3665
▁supportive	-3666
▁uncomfortable	-3667
zz	-3668
fish	-3669
gged	-3670
sted	-3671
▁esc	-3672
▁pen	-3673
▁wit	-3674
velop	-3675
▁nuts	-3676
▁bucks	-3677
▁champ	-3678
▁drama	-3679
▁marry	-3680
▁plate	-3681
▁mental	-3682
▁america	-3683
▁sounded	-3684
▁otherwise	-3685
▁understanding	-3686
kn	-3687
lex	-3688
▁60	-3689
chel	-3690
lept	-3691
ring	-3692
rupt	-3693
▁dry	-3694
alled	-3695
▁earn	-3696
▁vase	-3697
▁cable	-3698
▁fries	-3699
▁mario	-3700
▁arrive	-3701
▁kicked	-3702
▁loaned	-3703
▁daycare	-3704
▁develop	-3705
▁illness	-3706
▁passion	-3707
▁community	-3708
▁delivered	-3709
▁everybody	-3710
▁professional	-3711
▁'	-3712
boy	-3713
▁psy	-3714
▁und	-3715
▁fill	-3716
▁blind	-3717
▁hurry	-3718
▁ocean	-3719
▁thurs	-3720
▁excell	-3721
▁phones	-3722
▁recogn	-3723
▁dealing	-3724
▁respond	-3725
▁staring	-3726
▁previous	-3727
▁situations	-3728
▁application	-3729
mp	-3730
ees	-3731
son	-3732
inis	-3733
aches	-3734
adays	-3735
▁1000	-3736
▁cock	-3737
▁isnt	-3738
▁trad	-3739
▁benef	-3740
▁somed	-3741
▁braves	-3742
▁common	-3743
▁hawaii	-3744
▁member	-3745
▁tinder	-3746
▁advance	-3747
▁reminis	-3748
▁thunder	-3749
▁writing	-3750
▁nowadays	-3751
▁teenager	-3752
gia	-3753
tain	-3754
▁lad	-3755
▁mac	-3756
▁zoo	-3757
ences	-3758
ister	-3759
plant	-3760
▁purp	-3761
▁tall	-3762
ension	-3763
▁horse	-3764
▁silly	-3765
onsider	-3766
▁bachel	-3767
▁recent	-3768
▁slowly	-3769
▁dancing	-3770
▁physical	-3771
▁thursday	-3772
▁weekends	-3773
▁leftovers	-3774
▁incredibly	-3775
▁experienced	-3776
▁expectations	-3777
ped	-3778
ung	-3779
▁80	-3780
ceed	-3781
grav	-3782
lect	-3783
▁dar	-3784
▁dut	-3785
▁bust	-3786
▁kore	-3787
▁mark	-3788
▁ruin	-3789
▁soul	-3790
worthy	-3791
▁admit	-3792
▁chann	-3793
▁dread	-3794
▁foods	-3795
▁rides	-3796
▁aggrav	-3797
▁insane	-3798
▁nearby	-3799
▁parcel	-3800
▁underw	-3801
▁painful	-3802
▁becoming	-3803
▁responsible	-3804
fc	-3805
la	-3806
▁bi	-3807
edul	-3808
quit	-3809
▁eld	-3810
andon	-3811
anted	-3812
phone	-3813
▁bite	-3814
▁chip	-3815
▁envy	-3816
▁hill	-3817
▁host	-3818
▁outd	-3819
▁scar	-3820
▁shoe	-3821
▁soci	-3822
▁spit	-3823
▁unkn	-3824
▁yuck	-3825
▁calif	-3826
▁stock	-3827
▁write	-3828
▁itself	-3829
▁multip	-3830
▁pepper	-3831
▁player	-3832
▁snakes	-3833
▁abandon	-3834
▁allowed	-3835
▁challen	-3836
▁element	-3837
▁meaning	-3838
▁nursing	-3839
▁starved	-3840
▁counting	-3841
▁electric	-3842
▁thoughts	-3843
▁waitress	-3844
▁advantage	-3845
▁excellent	-3846
alk	-3847
app	-3848
pte	-3849
▁wo	-3850
anna	-3851
born	-3852
ores	-3853
▁eur	-3854
▁fur	-3855
▁huh	-3856
▁mal	-3857
▁mos	-3858
▁sel	-3859
ornia	-3860
▁choo	-3861
▁flag	-3862
▁lord	-3863
idered	-3864
▁breed	-3865
▁livid	-3866
▁medic	-3867
▁psych	-3868
cessary	-3869
▁dragon	-3870
▁europe	-3871
▁junior	-3872
▁cousins	-3873
▁schools	-3874
▁secrets	-3875
▁toddler	-3876
▁approach	-3877
▁fighting	-3878
▁presents	-3879
onsiderate	-3880
▁california	-3881
▁surprising	-3882
▁inconsiderate	-3883
▁understandable	-3884
male	-3885
▁aud	-3886
▁ded	-3887
▁fro	-3888
▁mir	-3889
▁sau	-3890
▁dear	-3891
▁hole	-3892
▁rich	-3893
▁tail	-3894
▁activ	-3895
▁airpl	-3896
▁album	-3897
▁boxes	-3898
▁decor	-3899
▁shark	-3900
▁bottle	-3901
▁casino	-3902
▁female	-3903
▁marath	-3904
▁anytime	-3905
▁motorcy	-3906
▁homework	-3907
▁frightened	-3908
vs	-3909
ina	-3910
nes	-3911
shi	-3912
▁au	-3913
▁ol	-3914
flix	-3915
igin	-3916
▁300	-3917
▁mer	-3918
▁2000	-3919
ership	-3920
ousand	-3921
uition	-3922
▁alter	-3923
▁highs	-3924
ination	-3925
▁houses	-3926
▁madden	-3927
▁severe	-3928
▁stairs	-3929
▁closing	-3930
▁netflix	-3931
▁provide	-3932
▁workout	-3933
▁thousand	-3934
▁qualified	-3935
▁considered	-3936
▁x	-3937
cut	-3938
▁na	-3939
ians	-3940
lace	-3941
real	-3942
▁equ	-3943
▁tac	-3944
ption	-3945
▁corn	-3946
▁eggs	-3947
▁jour	-3948
▁risk	-3949
▁birds	-3950
▁hopes	-3951
▁septe	-3952
▁smile	-3953
▁songs	-3954
▁fights	-3955
▁gather	-3956
▁nature	-3957
▁stores	-3958
▁tasted	-3959
▁tricks	-3960
▁uneasy	-3961
▁ditched	-3962
▁highway	-3963
▁mosquit	-3964
▁neither	-3965
▁schedul	-3966
▁distract	-3967
▁familiar	-3968
▁necklace	-3969
▁purchase	-3970
▁restroom	-3971
▁apologize	-3972
▁relatives	-3973
▁september	-3974
▁attractive	-3975
▁difference	-3976
▁management	-3977
pa	-3978
tt	-3979
att	-3980
ife	-3981
ode	-3982
inge	-3983
uary	-3984
▁yum	-3985
enses	-3986
▁ador	-3987
▁bott	-3988
▁cord	-3989
▁dirt	-3990
▁soda	-3991
▁wine	-3992
▁daily	-3993
▁encou	-3994
▁veget	-3995
▁laying	-3996
▁origin	-3997
▁overse	-3998
▁reject	-3999
▁select	-4000
▁message	-4001
▁singing	-4002
▁someday	-4003
▁adorable	-4004
▁december	-4005
▁multiple	-4006
▁talented	-4007
▁committed	-4008
▁direction	-4009
▁scratched	-4010
▁highschool	-4011
▁physically	-4012
▁trustworthy	-4013
iot	-4014
uit	-4015
▁ec	-4016
ffle	-4017
ives	-4018
▁goo	-4019
▁tes	-4020
▁betr	-4021
▁bond	-4022
▁chef	-4023
▁ment	-4024
▁oven	-4025
▁suit	-4026
▁task	-4027
▁vers	-4028
▁fried	-4029
▁loans	-4030
▁shake	-4031
▁trips	-4032
▁annual	-4033
▁commun	-4034
▁pushed	-4035
▁grandpa	-4036
▁granted	-4037
▁savings	-4038
▁society	-4039
▁warning	-4040
▁washing	-4041
▁changing	-4042
▁finances	-4043
▁marathon	-4044
▁overcome	-4045
▁painting	-4046
▁spelling	-4047
▁teachers	-4048
▁fortunate	-4049
▁rewarding	-4050
▁elementary	-4051
▁motorcycle	-4052
▁travelling	-4053
▁considering	-4054
bow	-4055
ply	-4056
ulf	-4057
▁22	-4058
▁35	-4059
▁ce	-4060
walk	-4061
▁cla	-4062
▁unb	-4063
ength	-4064
▁holy	-4065
▁pupp	-4066
▁scen	-4067
▁unha	-4068
▁unlo	-4069
▁abuse	-4070
▁clown	-4071
▁sadly	-4072
▁salad	-4073
▁taxes	-4074
▁usual	-4075
▁unsure	-4076
▁cherish	-4077
▁classic	-4078
▁connect	-4079
▁diapers	-4080
▁jumping	-4081
▁packing	-4082
▁texting	-4083
▁unknown	-4084
ification	-4085
▁colorado	-4086
▁overseas	-4087
▁properly	-4088
▁shooting	-4089
▁happiness	-4090
▁obviously	-4091
▁recommend	-4092
▁humiliated	-4093
▁volunteered	-4094
ton	-4095
ials	-4096
▁ang	-4097
▁ban	-4098
▁bee	-4099
▁sil	-4100
▁tow	-4101
ender	-4102
ially	-4103
▁bear	-4104
▁duck	-4105
▁gest	-4106
▁golf	-4107
▁inse	-4108
▁isol	-4109
▁path	-4110
▁sink	-4111
▁apple	-4112
▁avail	-4113
▁baked	-4114
▁frequ	-4115
▁green	-4116
▁habit	-4117
▁nicer	-4118
▁tesla	-4119
▁wanna	-4120
▁budget	-4121
▁donuts	-4122
▁poison	-4123
▁ignored	-4124
▁numbers	-4125
▁printer	-4126
▁sending	-4127
▁airplane	-4128
▁crossing	-4129
▁mountains	-4130
oon	-4131
val	-4132
ades	-4133
istry	-4134
least	-4135
▁bags	-4136
▁bomb	-4137
▁junk	-4138
▁stro	-4139
▁basic	-4140
▁spare	-4141
▁tight	-4142
ionship	-4143
▁classm	-4144
▁client	-4145
▁pocket	-4146
▁potato	-4147
▁sucked	-4148
▁answers	-4149
▁anybody	-4150
▁bearded	-4151
▁economy	-4152
▁purpose	-4153
▁reasons	-4154
▁refused	-4155
▁skating	-4156
▁wishing	-4157
▁athletic	-4158
▁emotions	-4159
▁replaced	-4160
▁shocking	-4161
▁terribly	-4162
▁roommates	-4163
yy	-4164
iew	-4165
ley	-4166
▁lu	-4167
▁cap	-4168
▁mic	-4169
▁oct	-4170
▁sex	-4171
▁sne	-4172
▁aver	-4173
▁farm	-4174
▁fund	-4175
▁rear	-4176
▁stat	-4177
▁view	-4178
illing	-4179
▁assum	-4180
▁flash	-4181
▁hobby	-4182
▁inclu	-4183
▁oppos	-4184
▁paint	-4185
▁split	-4186
▁demand	-4187
▁determ	-4188
▁excuse	-4189
▁finger	-4190
▁scares	-4191
▁simply	-4192
▁turtle	-4193
▁ability	-4194
▁atleast	-4195
▁average	-4196
▁cameras	-4197
▁chasing	-4198
▁elderly	-4199
▁expired	-4200
▁forgive	-4201
▁natural	-4202
▁puppies	-4203
▁rescued	-4204
▁willing	-4205
▁attacked	-4206
▁employer	-4207
▁national	-4208
▁struggle	-4209
▁underwear	-4210
▁depression	-4211
▁interviewed	-4212
ana	-4213
nis	-4214
ught	-4215
▁eww	-4216
▁fer	-4217
▁hmm	-4218
▁dise	-4219
▁fool	-4220
▁hire	-4221
▁rabb	-4222
ending	-4223
vision	-4224
▁crime	-4225
▁dying	-4226
▁incre	-4227
▁scold	-4228
▁batter	-4229
▁camera	-4230
▁income	-4231
▁litter	-4232
▁shorts	-4233
▁tennis	-4234
▁collect	-4235
▁complex	-4236
▁courage	-4237
▁hardest	-4238
▁introdu	-4239
▁lessons	-4240
▁unhappy	-4241
▁blessing	-4242
▁precious	-4243
▁screamed	-4244
▁standing	-4245
▁transfer	-4246
▁ourselves	-4247
▁characters	-4248
▁retirement	-4249
▁oo	-4250
uing	-4251
▁mod	-4252
▁rob	-4253
arket	-4254
arter	-4255
ilies	-4256
▁bout	-4257
▁duty	-4258
▁epis	-4259
▁opin	-4260
▁scra	-4261
▁tues	-4262
inated	-4263
▁crack	-4264
▁flags	-4265
▁labor	-4266
▁owned	-4267
▁screw	-4268
▁announ	-4269
▁butter	-4270
▁chased	-4271
▁leaves	-4272
▁respon	-4273
▁intense	-4274
▁related	-4275
▁tuesday	-4276
▁deserves	-4277
▁guessing	-4278
▁particip	-4279
▁register	-4280
▁bothering	-4281
▁wondering	-4282
▁approached	-4283
▁relationships	-4284
lt	-4285
ism	-4286
une	-4287
ache	-4288
angu	-4289
ench	-4290
ober	-4291
▁bes	-4292
▁poo	-4293
▁shy	-4294
▁tar	-4295
aming	-4296
apped	-4297
etown	-4298
▁arre	-4299
▁inch	-4300
▁knee	-4301
▁pump	-4302
▁spir	-4303
▁unit	-4304
raught	-4305
▁jeans	-4306
▁langu	-4307
▁mouse	-4308
▁talks	-4309
▁assume	-4310
▁county	-4311
▁diving	-4312
▁thinks	-4313
▁besides	-4314
▁bothers	-4315
▁bowling	-4316
▁express	-4317
▁failing	-4318
▁gesture	-4319
▁nephews	-4320
▁october	-4321
▁welcome	-4322
▁families	-4323
▁hometown	-4324
▁monsters	-4325
▁mountain	-4326
▁response	-4327
▁siblings	-4328
▁available	-4329
▁favorites	-4330
▁motivated	-4331
▁organized	-4332
▁depressing	-4333
▁overwhelming	-4334
▁rollercoaster	-4335
▁responsibility	-4336
acy	-4337
chy	-4338
lla	-4339
▁24	-4340
bowl	-4341
osit	-4342
▁gor	-4343
▁imm	-4344
place	-4345
▁bang	-4346
▁edge	-4347
▁king	-4348
▁mold	-4349
▁outf	-4350
▁puked	-4351
▁ramen	-4352
▁round	-4353
▁shots	-4354
▁assign	-4355
▁bitter	-4356
▁circus	-4357
▁infect	-4358
▁joined	-4359
▁deposit	-4360
▁hunting	-4361
▁mission	-4362
▁stubbed	-4363
▁succeed	-4364
▁crawling	-4365
▁mechanic	-4366
▁relieved	-4367
▁chemistry	-4368
▁scheduled	-4369
▁internship	-4370
bul	-4371
ify	-4372
iol	-4373
ron	-4374
vir	-4375
▁17	-4376
anes	-4377
over	-4378
ples	-4379
▁ble	-4380
▁rom	-4381
▁ufc	-4382
storm	-4383
▁legs	-4384
▁role	-4385
▁subm	-4386
▁thro	-4387
▁uber	-4388
▁arent	-4389
▁debit	-4390
▁names	-4391
▁prior	-4392
▁august	-4393
▁buffet	-4394
▁colors	-4395
▁mexico	-4396
▁tastes	-4397
▁ticked	-4398
▁damaged	-4399
▁heading	-4400
▁killing	-4401
▁mexican	-4402
▁officer	-4403
▁windows	-4404
▁friendly	-4405
▁strength	-4406
▁abilities	-4407
▁nostalgia	-4408
▁apologized	-4409
mi	-4410
ob	-4411
oph	-4412
par	-4413
▁ef	-4414
apan	-4415
atia	-4416
bles	-4417
list	-4418
ners	-4419
pons	-4420
road	-4421
▁800	-4422
▁pic	-4423
▁rip	-4424
▁yay	-4425
ooked	-4426
▁coll	-4427
▁fest	-4428
▁pant	-4429
▁pian	-4430
▁wore	-4431
▁yell	-4432
▁blown	-4433
▁hello	-4434
▁indep	-4435
▁japan	-4436
▁limit	-4437
▁offic	-4438
▁radio	-4439
▁voice	-4440
▁vomit	-4441
▁abroad	-4442
▁booked	-4443
▁breath	-4444
▁effect	-4445
▁finals	-4446
▁payday	-4447
▁compass	-4448
▁deliver	-4449
▁smoking	-4450
▁spanish	-4451
▁attached	-4452
▁catching	-4453
▁material	-4454
▁opposite	-4455
▁sidewalk	-4456
▁suprising	-4457
▁distraught	-4458
▁throughout	-4459
▁anticipation	-4460
gy	-4461
off	-4462
ury	-4463
▁dm	-4464
vern	-4465
▁hat	-4466
▁ole	-4467
▁tea	-4468
antic	-4469
▁aced	-4470
▁cavs	-4471
▁chew	-4472
▁crit	-4473
▁inno	-4474
▁lets	-4475
▁lies	-4476
▁pink	-4477
▁tele	-4478
ential	-4479
▁bench	-4480
▁force	-4481
▁laund	-4482
▁magic	-4483
▁prank	-4484
▁advent	-4485
▁battle	-4486
▁cowboy	-4487
▁prices	-4488
▁rained	-4489
▁slight	-4490
▁treats	-4491
▁unfair	-4492
▁barking	-4493
▁clearly	-4494
▁counsel	-4495
▁private	-4496
▁bachelor	-4497
▁election	-4498
▁freshman	-4499
▁independ	-4500
▁selected	-4501
▁determined	-4502
▁thoughtful	-4503
▁achievement	-4504
▁championship	-4505
aky	-4506
ids	-4507
oms	-4508
ony	-4509
▁400	-4510
▁bak	-4511
▁dig	-4512
▁fra	-4513
▁tab	-4514
iment	-4515
▁dads	-4516
▁fulf	-4517
▁lack	-4518
▁nest	-4519
▁pics	-4520
▁scam	-4521
ission	-4522
▁chose	-4523
▁mortg	-4524
▁range	-4525
▁sight	-4526
▁slept	-4527
▁smoke	-4528
▁socks	-4529
▁types	-4530
▁access	-4531
▁breaks	-4532
▁candid	-4533
▁events	-4534
▁posted	-4535
▁propos	-4536
▁causing	-4537
▁cowboys	-4538
▁croatia	-4539
▁journey	-4540
▁matters	-4541
▁mothers	-4542
▁opinion	-4543
▁pulling	-4544
▁stuffed	-4545
▁treated	-4546
▁chatting	-4547
▁climbing	-4548
▁compared	-4549
▁medicine	-4550
▁mentally	-4551
▁proposed	-4552
▁worrying	-4553
▁abandoned	-4554
▁employees	-4555
▁tradition	-4556
▁treatment	-4557
▁fortunately	-4558
▁certification	-4559
kin	-4560
▁45	-4561
▁ut	-4562
etic	-4563
hand	-4564
▁cig	-4565
▁err	-4566
▁rul	-4567
▁san	-4568
▁unc	-4569
▁ages	-4570
▁bake	-4571
▁cere	-4572
▁chin	-4573
▁evil	-4574
▁hike	-4575
▁joke	-4576
▁taco	-4577
▁temp	-4578
▁zero	-4579
ctions	-4580
ession	-4581
nesday	-4582
phones	-4583
▁areas	-4584
▁envir	-4585
▁recon	-4586
▁reser	-4587
▁sushi	-4588
▁wound	-4589
▁actual	-4590
▁altern	-4591
▁cockro	-4592
▁faster	-4593
▁rabbit	-4594
▁raffle	-4595
▁superm	-4596
▁thrown	-4597
vernment	-4598
▁dressed	-4599
▁haircut	-4600
▁players	-4601
▁request	-4602
▁shatter	-4603
▁survive	-4604
▁pleasant	-4605
▁possibly	-4606
▁superbowl	-4607
▁wednesday	-4608
▁downstairs	-4609
▁instructor	-4610
▁engineering	-4611
ium	-4612
was	-4613
itor	-4614
ivid	-4615
oors	-4616
▁fal	-4617
▁fav	-4618
▁lab	-4619
▁mut	-4620
▁ult	-4621
▁usa	-4622
lined	-4623
ropri	-4624
▁auto	-4625
▁clue	-4626
▁disl	-4627
▁ecst	-4628
▁glut	-4629
▁lent	-4630
▁lift	-4631
▁ohhh	-4632
▁pile	-4633
▁port	-4634
▁ship	-4635
▁sket	-4636
▁susp	-4637
isions	-4638
onment	-4639
▁began	-4640
▁binge	-4641
▁chair	-4642
▁chest	-4643
▁claim	-4644
▁hilar	-4645
▁influ	-4646
▁lines	-4647
▁pitch	-4648
▁center	-4649
▁diaper	-4650
▁donate	-4651
▁mainly	-4652
▁pieces	-4653
▁spoken	-4654
▁temper	-4655
▁disease	-4656
▁laundry	-4657
▁recital	-4658
▁showing	-4659
▁written	-4660
▁american	-4661
▁arrested	-4662
▁ecstatic	-4663
▁expenses	-4664
▁ordering	-4665
▁decisions	-4666
▁hilarious	-4667
▁dealership	-4668
▁discovered	-4669
▁environment	-4670
▁unexpectedly	-4671
mw	-4672
alu	-4673
▁mi	-4674
▁yo	-4675
adow	-4676
pler	-4677
▁adj	-4678
▁bmw	-4679
▁dmv	-4680
▁ooo	-4681
▁ven	-4682
usive	-4683
▁blew	-4684
▁deer	-4685
▁oops	-4686
▁tent	-4687
▁tons	-4688
▁wars	-4689
▁wasp	-4690
▁witn	-4691
urning	-4692
▁based	-4693
▁brave	-4694
▁chill	-4695
▁enter	-4696
▁evalu	-4697
▁hesit	-4698
▁husky	-4699
▁mixed	-4700
▁model	-4701
▁nurse	-4702
▁commit	-4703
▁master	-4704
▁rotten	-4705
▁toward	-4706
▁waking	-4707
▁wooded	-4708
▁chances	-4709
▁charity	-4710
▁happend	-4711
▁parties	-4712
▁popular	-4713
▁retired	-4714
▁reviews	-4715
▁suggest	-4716
▁addition	-4717
▁innocent	-4718
▁isolated	-4719
▁language	-4720
▁mortgage	-4721
▁survived	-4722
▁forgotten	-4723
▁struggled	-4724
▁vacations	-4725
▁witnessed	-4726
▁compassion	-4727
gu	-4728
bed	-4729
ges	-4730
iev	-4731
ole	-4732
oom	-4733
osis	-4734
step	-4735
uses	-4736
▁awa	-4737
▁umb	-4738
ergic	-4739
itary	-4740
style	-4741
▁army	-4742
▁cage	-4743
▁geez	-4744
▁keto	-4745
▁term	-4746
ground	-4747
▁alley	-4748
▁doors	-4749
▁exist	-4750
▁forth	-4751
▁grind	-4752
▁irked	-4753
▁lotto	-4754
▁parks	-4755
▁piano	-4756
▁renew	-4757
▁rules	-4758
▁shady	-4759
▁tries	-4760
▁bakery	-4761
▁chores	-4762
▁crappy	-4763
▁greate	-4764
▁ladies	-4765
▁remain	-4766
▁safely	-4767
▁sooner	-4768
▁throat	-4769
▁balance	-4770
▁changes	-4771
▁couples	-4772
▁curious	-4773
▁grabbed	-4774
▁section	-4775
▁simpler	-4776
▁allergic	-4777
▁inspired	-4778
▁paperwork	-4779
▁professor	-4780
▁embarassed	-4781
▁personally	-4782
▁television	-4783
▁supermarket	-4784
ada	-4785
ris	-4786
ilot	-4787
▁kar	-4788
▁yog	-4789
allow	-4790
ature	-4791
iding	-4792
▁darn	-4793
▁fake	-4794
▁hung	-4795
▁semi	-4796
▁upgr	-4797
▁webs	-4798
▁bound	-4799
▁brain	-4800
▁cabin	-4801
▁drown	-4802
▁knife	-4803
▁meals	-4804
▁squid	-4805
▁tears	-4806
▁thick	-4807
▁action	-4808
▁assist	-4809
▁baking	-4810
▁choose	-4811
▁ghosts	-4812
▁rarely	-4813
▁stroke	-4814
▁flooded	-4815
▁reality	-4816
▁slammed	-4817
▁theater	-4818
▁worries	-4819
▁awaiting	-4820
▁benefits	-4821
▁greatest	-4822
▁headache	-4823
▁invested	-4824
▁transport	-4825
▁exercising	-4826
fi	-4827
ts	-4828
ale	-4829
uri	-4830
uss	-4831
▁ip	-4832
acle	-4833
ctic	-4834
pted	-4835
▁aid	-4836
▁ank	-4837
▁fla	-4838
▁fol	-4839
▁mma	-4840
▁unl	-4841
icted	-4842
lando	-4843
order	-4844
uable	-4845
▁clot	-4846
▁file	-4847
▁nove	-4848
▁rage	-4849
mentia	-4850
usting	-4851
▁block	-4852
▁coach	-4853
▁gorge	-4854
▁idiot	-4855
▁kitty	-4856
▁treas	-4857
▁youth	-4858
ception	-4859
▁ignore	-4860
▁object	-4861
▁onions	-4862
▁papers	-4863
▁craving	-4864
▁kidding	-4865
▁orlando	-4866
▁setting	-4867
▁storage	-4868
▁trailer	-4869
▁version	-4870
▁careless	-4871
▁dementia	-4872
▁disaster	-4873
▁eggplant	-4874
▁november	-4875
▁reaction	-4876
▁signific	-4877
▁valuable	-4878
▁addiction	-4879
▁character	-4880
▁belongings	-4881
▁generation	-4882
▁complicated	-4883
fo	-4884
ker	-4885
rep	-4886
▁ps	-4887
aded	-4888
cies	-4889
ille	-4890
itis	-4891
▁bah	-4892
▁ess	-4893
▁ing	-4894
▁ver	-4895
▁yan	-4896
iable	-4897
▁febr	-4898
▁grab	-4899
▁hits	-4900
▁hood	-4901
▁kidd	-4902
▁lend	-4903
▁male	-4904
▁panc	-4905
▁sens	-4906
▁uses	-4907
ipping	-4908
▁appet	-4909
▁lonel	-4910
▁notes	-4911
▁skunk	-4912
▁sorts	-4913
▁straw	-4914
▁tells	-4915
▁theme	-4916
▁tools	-4917
▁discus	-4918
▁fixing	-4919
▁handed	-4920
▁jacket	-4921
▁punish	-4922
▁served	-4923
▁turkey	-4924
▁choices	-4925
▁highest	-4926
▁lifting	-4927
▁sketchy	-4928
▁february	-4929
▁listened	-4930
▁location	-4931
▁midnight	-4932
▁potatoes	-4933
▁required	-4934
▁softball	-4935
▁finishing	-4936
▁including	-4937
▁responsib	-4938
▁disneyland	-4939
▁frequently	-4940
▁loneliness	-4941
▁nightmares	-4942
▁rollercoasters	-4943
ik	-4944
▁70	-4945
ands	-4946
cony	-4947
▁exh	-4948
▁gut	-4949
▁hug	-4950
▁lap	-4951
▁nie	-4952
▁sea	-4953
ashed	-4954
icate	-4955
uggle	-4956
▁arms	-4957
▁ferr	-4958
▁hers	-4959
▁july	-4960
▁thru	-4961
▁tool	-4962
▁marks	-4963
▁naked	-4964
▁separ	-4965
▁serve	-4966
▁vegan	-4967
ossible	-4968
▁gluten	-4969
▁ingred	-4970
▁korean	-4971
▁nieces	-4972
▁option	-4973
▁regard	-4974
▁shadow	-4975
▁subway	-4976
▁target	-4977
▁theres	-4978
▁tragic	-4979
▁bahamas	-4980
▁balcony	-4981
▁chinese	-4982
▁delayed	-4983
▁pretend	-4984
▁reflect	-4985
▁shaking	-4986
▁tuition	-4987
▁freaking	-4988
▁gambling	-4989
▁released	-4990
▁accidents	-4991
▁challenge	-4992
▁companies	-4993
▁completed	-4994
▁political	-4995
▁reconnect	-4996
▁volunteer	-4997
▁activities	-4998
▁impossible	-4999
▁supporting	-5000
▁celebrating	-5001
▁experiences	-5002
▁thunderstorm	-5003
ev	-5004
edy	-5005
gle	-5006
▁fb	-5007
oons	-5008
raft	-5009
▁kay	-5010
▁owe	-5011
▁spa	-5012
▁teh	-5013
▁var	-5014
adill	-5015
mbled	-5016
▁2018	-5017
▁asap	-5018
▁irma	-5019
▁picn	-5020
▁runs	-5021
▁swer	-5022
ashing	-5023
▁attem	-5024
▁chase	-5025
▁sauce	-5026
▁tasty	-5027
▁teams	-5028
▁twins	-5029
ization	-5030
mission	-5031
venient	-5032
▁cookie	-5033
▁discip	-5034
▁gaming	-5035
▁nailed	-5036
▁reserv	-5037
ropriate	-5038
▁actions	-5039
▁aggress	-5040
▁channel	-5041
▁counter	-5042
▁cutting	-5043
▁depends	-5044
▁example	-5045
▁hamster	-5046
▁lunches	-5047
▁backpack	-5048
▁discount	-5049
▁gorgeous	-5050
▁horribly	-5051
▁colleague	-5052
▁generally	-5053
▁inspiring	-5054
▁presented	-5055
▁shattered	-5056
▁alternative	-5057
▁approaching	-5058
▁frightening	-5059
▁girlfriends	-5060
▁grandfathers	-5061
ns	-5062
eet	-5063
sis	-5064
bour	-5065
made	-5066
sion	-5067
ther	-5068
▁clu	-5069
▁deb	-5070
ables	-5071
acing	-5072
▁boun	-5073
▁east	-5074
▁harm	-5075
▁lawy	-5076
▁pill	-5077
▁whil	-5078
▁yoga	-5079
icycle	-5080
▁guest	-5081
▁guilt	-5082
▁hahah	-5083
▁ideas	-5084
▁insec	-5085
▁leash	-5086
▁resch	-5087
▁roach	-5088
▁smack	-5089
respons	-5090
▁active	-5091
▁french	-5092
▁gained	-5093
▁settle	-5094
▁cheaper	-5095
▁climate	-5096
▁handful	-5097
▁healing	-5098
▁leading	-5099
▁quarter	-5100
▁reached	-5101
▁sharing	-5102
▁smashed	-5103
▁clothing	-5104
▁maintain	-5105
▁patience	-5106
▁rejected	-5107
▁troubles	-5108
▁yearbook	-5109
▁convinced	-5110
▁necessary	-5111
▁neighbour	-5112
▁returning	-5113
▁aggressive	-5114
▁boyfriends	-5115
▁headphones	-5116
▁technology	-5117
▁understood	-5118
▁competitive	-5119
▁ingredients	-5120
▁restaurants	-5121
ih	-5122
mo	-5123
for	-5124
lbs	-5125
▁uk	-5126
edom	-5127
ogra	-5128
▁ast	-5129
▁dip	-5130
▁fac	-5131
▁unp	-5132
▁wis	-5133
▁woo	-5134
enced	-5135
heart	-5136
icked	-5137
▁cope	-5138
▁ease	-5139
▁gain	-5140
▁laws	-5141
▁whom	-5142
igious	-5143
ograph	-5144
uments	-5145
▁cares	-5146
▁hoped	-5147
▁hubby	-5148
▁hyped	-5149
▁lower	-5150
▁north	-5151
▁spoil	-5152
▁umbre	-5153
▁unbel	-5154
reaking	-5155
▁bumped	-5156
▁gifted	-5157
▁groups	-5158
▁heaven	-5159
▁retail	-5160
▁skiing	-5161
▁texted	-5162
▁blanket	-5163
▁fiancee	-5164
▁freedom	-5165
▁options	-5166
▁spoiled	-5167
▁totaled	-5168
▁brownies	-5169
▁dumpster	-5170
▁festival	-5171
▁goldfish	-5172
▁handling	-5173
▁smoothly	-5174
▁sweating	-5175
▁upstairs	-5176
▁clearance	-5177
▁encourage	-5178
▁irrespons	-5179
▁lightning	-5180
▁reception	-5181
▁recovered	-5182
▁teenagers	-5183
▁workplace	-5184
▁appartment	-5185
▁beforehand	-5186
▁celebrated	-5187
▁government	-5188
▁medication	-5189
we	-5190
▁0	-5191
car	-5192
hab	-5193
urb	-5194
▁ur	-5195
anch	-5196
cist	-5197
cles	-5198
ware	-5199
▁gal	-5200
▁gpa	-5201
▁jet	-5202
▁mur	-5203
▁sym	-5204
▁tun	-5205
attoo	-5206
ledge	-5207
oting	-5208
▁acts	-5209
▁cast	-5210
▁firm	-5211
▁gear	-5212
▁info	-5213
▁ipad	-5214
▁puts	-5215
▁quiz	-5216
▁rate	-5217
▁shri	-5218
▁skip	-5219
▁sour	-5220
unting	-5221
▁argue	-5222
▁cakes	-5223
▁chain	-5224
▁dried	-5225
▁flirt	-5226
▁messy	-5227
▁patch	-5228
▁slide	-5229
▁squir	-5230
▁wheel	-5231
▁beside	-5232
▁canada	-5233
▁highly	-5234
▁impact	-5235
▁lawyer	-5236
▁loudly	-5237
▁plants	-5238
▁states	-5239
▁tattoo	-5240
▁thrift	-5241
▁blowing	-5242
▁crowded	-5243
▁ferrari	-5244
▁glasses	-5245
▁pushing	-5246
▁repairs	-5247
▁routine	-5248
▁appetite	-5249
▁contract	-5250
▁generous	-5251
▁kayaking	-5252
▁military	-5253
▁unbeliev	-5254
▁countries	-5255
▁customers	-5256
▁eachother	-5257
▁mentioned	-5258
▁babysitter	-5259
▁distracted	-5260
▁motivation	-5261
▁personality	-5262
aa	-5263
ok	-5264
ams	-5265
rot	-5266
ints	-5267
▁ais	-5268
▁foc	-5269
▁hah	-5270
▁suv	-5271
ought	-5272
raged	-5273
ugged	-5274
urger	-5275
▁comb	-5276
▁exha	-5277
▁init	-5278
▁kitt	-5279
▁moon	-5280
▁remo	-5281
▁site	-5282
▁viol	-5283
▁anger	-5284
▁cruel	-5285
▁minor	-5286
▁overd	-5287
▁pasta	-5288
▁repay	-5289
▁rolls	-5290
▁snack	-5291
▁sunny	-5292
▁walls	-5293
▁yanke	-5294
▁picnic	-5295
▁placed	-5296
▁points	-5297
▁surely	-5298
▁episode	-5299
▁focused	-5300
▁foreign	-5301
▁hospice	-5302
▁infront	-5303
▁messing	-5304
▁newborn	-5305
▁roomate	-5306
▁bothered	-5307
▁hesitant	-5308
▁payments	-5309
▁sweetest	-5310
▁continues	-5311
▁homeschool	-5312
▁aggravating	-5313
▁complaining	-5314
ii	-5315
rd	-5316
ago	-5317
dog	-5318
hor	-5319
sey	-5320
uct	-5321
▁23	-5322
▁eh	-5323
▁ug	-5324
hold	-5325
iens	-5326
lley	-5327
otic	-5328
roll	-5329
vard	-5330
▁ger	-5331
▁led	-5332
▁paj	-5333
▁pup	-5334
arant	-5335
▁chic	-5336
▁dess	-5337
▁diab	-5338
▁diss	-5339
▁eats	-5340
▁navy	-5341
▁rice	-5342
▁sore	-5343
▁stub	-5344
▁tear	-5345
▁finds	-5346
▁intim	-5347
▁occur	-5348
▁overs	-5349
▁panic	-5350
▁rehab	-5351
▁scrap	-5352
▁admire	-5353
▁aliens	-5354
▁busted	-5355
▁crimin	-5356
▁design	-5357
▁iphone	-5358
▁muscle	-5359
▁repeat	-5360
▁safety	-5361
▁threat	-5362
▁tomato	-5363
▁unique	-5364
▁accused	-5365
▁becomes	-5366
▁capable	-5367
▁ceiling	-5368
▁cracked	-5369
▁dessert	-5370
▁england	-5371
▁joining	-5372
▁seconds	-5373
▁serving	-5374
▁shortly	-5375
▁swallow	-5376
▁wrecked	-5377
▁confused	-5378
▁document	-5379
▁repeated	-5380
▁startled	-5381
▁suprised	-5382
▁contacted	-5383
▁instantly	-5384
▁regularly	-5385
▁strangers	-5386
▁apartments	-5387
▁directions	-5388
▁horrifying	-5389
▁reschedule	-5390
▁significant	-5391
sc	-5392
hen	-5393
iff	-5394
olf	-5395
tte	-5396
zed	-5397
▁95	-5398
▁py	-5399
cast	-5400
corn	-5401
iger	-5402
mony	-5403
nity	-5404
sole	-5405
▁clo	-5406
▁max	-5407
▁obs	-5408
▁rum	-5409
▁van	-5410
▁wip	-5411
afood	-5412
ipper	-5413
mower	-5414
stand	-5415
uting	-5416
▁bump	-5417
▁conc	-5418
▁incl	-5419
▁pity	-5420
▁snap	-5421
▁spar	-5422
▁unem	-5423
erence	-5424
▁brush	-5425
▁daddy	-5426
▁greet	-5427
▁james	-5428
▁jerks	-5429
▁skate	-5430
▁slack	-5431
▁stays	-5432
▁wings	-5433
unities	-5434
▁beaten	-5435
▁betray	-5436
▁bosses	-5437
▁cities	-5438
▁descri	-5439
▁disapp	-5440
▁donald	-5441
▁entert	-5442
▁prison	-5443
▁refuse	-5444
▁shirts	-5445
▁beating	-5446
▁console	-5447
▁letters	-5448
▁popcorn	-5449
▁seafood	-5450
▁streets	-5451
▁teenage	-5452
▁touched	-5453
▁mosquito	-5454
▁original	-5455
▁pancreat	-5456
▁patients	-5457
▁shoulder	-5458
▁starving	-5459
▁umbrella	-5460
▁afterward	-5461
▁attending	-5462
▁improving	-5463
▁intention	-5464
▁lawnmower	-5465
▁stressing	-5466
▁assignment	-5467
▁evaluation	-5468
▁considerate	-5469
▁embarassing	-5470
▁independent	-5471
▁possibility	-5472
▁opportunities	-5473
cr	-5474
ils	-5475
rel	-5476
aker	-5477
bean	-5478
lers	-5479
lymp	-5480
ucks	-5481
▁ahh	-5482
▁ego	-5483
▁fee	-5484
▁los	-5485
▁nfl	-5486
▁tit	-5487
ading	-5488
aging	-5489
apple	-5490
cedes	-5491
oured	-5492
sweet	-5493
umber	-5494
ustry	-5495
▁anti	-5496
▁bark	-5497
▁bush	-5498
▁cass	-5499
▁cudd	-5500
▁dorm	-5501
▁mont	-5502
▁pine	-5503
▁tore	-5504
▁unus	-5505
▁wise	-5506
▁burst	-5507
▁dated	-5508
▁eager	-5509
▁firew	-5510
▁folks	-5511
▁instr	-5512
▁lease	-5513
▁momma	-5514
▁olymp	-5515
▁stain	-5516
▁tires	-5517
▁trees	-5518
▁troph	-5519
aration	-5520
▁adults	-5521
▁desper	-5522
▁detail	-5523
▁devest	-5524
▁disres	-5525
▁essent	-5526
▁excite	-5527
▁hectic	-5528
▁hiding	-5529
▁hostel	-5530
▁racing	-5531
▁sadden	-5532
▁shared	-5533
▁spirit	-5534
▁stable	-5535
▁trauma	-5536
▁visits	-5537
▁wheels	-5538
▁whilst	-5539
▁wished	-5540
▁abusive	-5541
▁behaved	-5542
▁evicted	-5543
▁screwed	-5544
▁selfish	-5545
▁testing	-5546
▁topping	-5547
▁uniform	-5548
▁adoption	-5549
▁declined	-5550
▁directly	-5551
▁evidence	-5552
▁happiest	-5553
▁homemade	-5554
▁industry	-5555
▁informed	-5556
▁mercedes	-5557
▁reliable	-5558
▁secretly	-5559
▁slightly	-5560
▁standard	-5561
▁stepping	-5562
▁unemploy	-5563
▁horrified	-5564
▁overnight	-5565
▁pineapple	-5566
▁potential	-5567
▁pretended	-5568
▁reminisce	-5569
▁collection	-5570
▁dedication	-5571
▁devestated	-5572
▁impression	-5573
▁passionate	-5574
▁productive	-5575
▁scratching	-5576
▁bittersweet	-5577
▁participate	-5578
▁preparation	-5579
▁irresponsible	-5580
fa	-5581
fun	-5582
ios	-5583
rib	-5584
orks	-5585
play	-5586
▁hul	-5587
▁lou	-5588
▁mri	-5589
▁mud	-5590
▁upd	-5591
nival	-5592
rency	-5593
using	-5594
▁belt	-5595
▁bree	-5596
▁budd	-5597
▁deck	-5598
▁flip	-5599
▁ford	-5600
▁hamb	-5601
▁meds	-5602
▁nine	-5603
▁shar	-5604
▁slap	-5605
▁thor	-5606
▁wave	-5607
action	-5608
▁ankle	-5609
▁craig	-5610
▁deals	-5611
▁disag	-5612
▁elses	-5613
▁incom	-5614
▁jumps	-5615
▁solid	-5616
▁uncer	-5617
▁ballet	-5618
▁bottom	-5619
▁diabet	-5620
▁goodby	-5621
▁google	-5622
▁outfit	-5623
▁owners	-5624
▁repres	-5625
▁sharks	-5626
▁tempor	-5627
▁terrif	-5628
▁twenty	-5629
▁unpack	-5630
function	-5631
▁chicago	-5632
▁dislike	-5633
▁figures	-5634
▁halfway	-5635
▁harvard	-5636
▁individ	-5637
▁matches	-5638
▁outcome	-5639
▁propose	-5640
▁release	-5641
▁rushing	-5642
▁website	-5643
▁yankees	-5644
▁carnival	-5645
▁hundreds	-5646
▁perspect	-5647
▁rewarded	-5648
▁stubborn	-5649
▁toddlers	-5650
▁extension	-5651
▁fireworks	-5652
▁realizing	-5653
▁recognize	-5654
▁switching	-5655
▁uncertain	-5656
▁universal	-5657
▁complained	-5658
▁discipline	-5659
▁disrespect	-5660
▁forgetting	-5661
▁sweetheart	-5662
▁vegetables	-5663
▁reminiscing	-5664
▁understands	-5665
▁specifically	-5666
▁surprisingly	-5667
▁heartbreaking	-5668
▁transportation	-5669
cky	-5670
des	-5671
ota	-5672
sle	-5673
▁cy	-5674
▁hr	-5675
ders	-5676
onda	-5677
▁hip	-5678
▁jan	-5679
▁mug	-5680
▁mum	-5681
▁tut	-5682
allas	-5683
anoid	-5684
cials	-5685
ivity	-5686
riger	-5687
verse	-5688
watch	-5689
▁copy	-5690
▁disp	-5691
▁fans	-5692
▁lean	-5693
▁lect	-5694
▁melt	-5695
▁oper	-5696
▁pred	-5697
▁repa	-5698
▁wins	-5699
▁yall	-5700
ustral	-5701
▁added	-5702
▁boost	-5703
▁democ	-5704
▁fruit	-5705
▁handy	-5706
▁italy	-5707
▁lasts	-5708
▁loads	-5709
▁payed	-5710
▁stood	-5711
▁ultim	-5712
▁warri	-5713
▁youre	-5714
▁behave	-5715
▁behold	-5716
▁branch	-5717
▁cigare	-5718
▁commer	-5719
▁dallas	-5720
▁golden	-5721
▁healed	-5722
▁infuri	-5723
▁makeup	-5724
▁mirror	-5725
▁passes	-5726
▁pizzas	-5727
▁salary	-5728
▁spread	-5729
▁sticky	-5730
▁austral	-5731
▁drawing	-5732
▁fortune	-5733
▁further	-5734
▁ghosted	-5735
▁interst	-5736
▁mailbox	-5737
▁discover	-5738
▁dreading	-5739
▁investig	-5740
▁paranoid	-5741
▁refriger	-5742
▁software	-5743
▁surround	-5744
▁adventure	-5745
▁classroom	-5746
▁entertain	-5747
▁lifestyle	-5748
▁mosquitos	-5749
▁suffering	-5750
▁classmates	-5751
▁hurricanes	-5752
▁protective	-5753
▁psychology	-5754
ba	-5755
bu	-5756
hn	-5757
ona	-5758
▁65	-5759
▁cd	-5760
coon	-5761
mate	-5762
rats	-5763
reak	-5764
tled	-5765
town	-5766
▁600	-5767
▁bid	-5768
▁civ	-5769
▁meg	-5770
▁pal	-5771
▁tie	-5772
house	-5773
▁apri	-5774
▁asia	-5775
▁bars	-5776
▁exch	-5777
▁fees	-5778
▁flir	-5779
▁hero	-5780
▁lung	-5781
▁pors	-5782
▁russ	-5783
▁shed	-5784
▁tips	-5785
▁toes	-5786
▁unne	-5787
▁whis	-5788
▁xbox	-5789
apping	-5790
▁aware	-5791
▁awwww	-5792
▁beers	-5793
▁freez	-5794
▁grill	-5795
▁honda	-5796
▁honey	-5797
▁named	-5798
▁neice	-5799
▁prove	-5800
▁sharp	-5801
▁spagh	-5802
▁tasks	-5803
▁terms	-5804
▁affair	-5805
▁breast	-5806
▁earned	-5807
▁elated	-5808
▁fallen	-5809
▁humans	-5810
▁murder	-5811
▁shifts	-5812
▁struck	-5813
▁thrill	-5814
▁anyways	-5815
▁battery	-5816
▁buddies	-5817
▁butterf	-5818
▁comment	-5819
▁compare	-5820
▁failure	-5821
▁goodbye	-5822
▁kicking	-5823
▁masters	-5824
▁musical	-5825
▁organic	-5826
▁percent	-5827
▁pumpkin	-5828
▁punched	-5829
▁removed	-5830
▁rotting	-5831
▁slapped	-5832
▁smaller	-5833
▁achieved	-5834
▁channels	-5835
▁creative	-5836
▁downtown	-5837
▁dressing	-5838
▁flirting	-5839
▁function	-5840
▁insecure	-5841
▁keyboard	-5842
▁lonesome	-5843
▁outdoors	-5844
▁resolved	-5845
▁announced	-5846
▁dedicated	-5847
▁installed	-5848
▁marketing	-5849
▁represent	-5850
▁searching	-5851
▁excitement	-5852
▁introduced	-5853
▁celebration	-5854
▁practically	-5855
▁transferred	-5856
▁refrigerator	-5857
▁reservations	-5858
ask	-5859
cha	-5860
ows	-5861
ups	-5862
▁34	-5863
▁bb	-5864
▁pc	-5865
etti	-5866
iant	-5867
iter	-5868
umes	-5869
zard	-5870
▁199	-5871
▁lun	-5872
▁rac	-5873
▁tag	-5874
anced	-5875
anded	-5876
arily	-5877
berry	-5878
ictor	-5879
slist	-5880
▁ahhh	-5881
▁beef	-5882
▁elev	-5883
▁goss	-5884
▁hype	-5885
▁pier	-5886
▁robb	-5887
▁tank	-5888
▁trim	-5889
▁weak	-5890
ibbean	-5891
ifying	-5892
washer	-5893
▁awake	-5894
▁bands	-5895
▁basis	-5896
▁carbs	-5897
▁chunk	-5898
▁dough	-5899
▁gunsh	-5900
▁humid	-5901
▁korea	-5902
▁lined	-5903
▁nails	-5904
▁stare	-5905
▁stops	-5906
▁brakes	-5907
▁burden	-5908
▁causes	-5909
▁covers	-5910
▁cutest	-5911
▁foster	-5912
▁parrot	-5913
▁polite	-5914
▁rented	-5915
▁sweaty	-5916
▁werent	-5917
▁bicycle	-5918
▁biology	-5919
▁corrupt	-5920
▁decades	-5921
▁disturb	-5922
▁fantasy	-5923
▁flipped	-5924
▁loyalty	-5925
▁needing	-5926
▁neglect	-5927
▁pointed	-5928
▁politic	-5929
▁prevent	-5930
▁recipes	-5931
▁returns	-5932
▁skipped	-5933
▁stephen	-5934
▁sundays	-5935
▁whoever	-5936
▁answered	-5937
▁assuming	-5938
▁betrayed	-5939
▁ceremony	-5940
▁charging	-5941
▁convince	-5942
▁deadline	-5943
▁disagree	-5944
▁hahahaha	-5945
▁proposal	-5946
▁thorough	-5947
▁caribbean	-5948
▁classmate	-5949
▁companion	-5950
▁acceptance	-5951
▁compliment	-5952
▁conference	-5953
▁craigslist	-5954
▁dishwasher	-5955
▁fulfilling	-5956
▁photograph	-5957
▁devastating	-5958
▁improvement	-5959
▁malfunction	-5960
aff	-5961
dom	-5962
ief	-5963
lly	-5964
oma	-5965
ott	-5966
▁eb	-5967
▁ew	-5968
aces	-5969
airy	-5970
hole	-5971
nies	-5972
uded	-5973
▁adn	-5974
▁doo	-5975
▁lip	-5976
▁owl	-5977
▁rap	-5978
ented	-5979
icles	-5980
ution	-5981
▁asks	-5982
▁bats	-5983
▁brew	-5984
▁buzz	-5985
▁cine	-5986
▁coin	-5987
▁feat	-5988
▁leap	-5989
▁lice	-5990
▁ours	-5991
▁puzz	-5992
▁reno	-5993
▁seek	-5994
▁solo	-5995
▁spin	-5996
▁tied	-5997
▁tuck	-5998
▁vent	-5999
▁worn	-6000
issing	-6001
▁aisle	-6002
▁craft	-6003
▁crypt	-6004
▁dairy	-6005
▁draft	-6006
▁flown	-6007
▁grump	-6008
▁juice	-6009
▁lover	-6010
▁metal	-6011
▁reass	-6012
▁rural	-6013
▁shout	-6014
▁snuck	-6015
▁solve	-6016
▁wrist	-6017
connect	-6018
▁accord	-6019
▁adjust	-6020
▁appear	-6021
▁belief	-6022
▁confir	-6023
▁driven	-6024
▁flavor	-6025
▁forest	-6026
▁hassle	-6027
▁injury	-6028
▁island	-6029
▁kiddos	-6030
▁mutual	-6031
▁policy	-6032
▁recall	-6033
▁sleeps	-6034
▁smelly	-6035
▁suffer	-6036
▁washed	-6037
▁zipper	-6038
ications	-6039
standing	-6040
▁assured	-6041
▁begging	-6042
▁explore	-6043
▁happily	-6044
▁inspect	-6045
▁miracle	-6046
▁monster	-6047
▁outdoor	-6048
▁porsche	-6049
▁racking	-6050
▁witness	-6051
▁divorced	-6052
▁humanity	-6053
▁reminder	-6054
▁repaired	-6055
▁resident	-6056
▁candidate	-6057
▁continued	-6058
▁counselor	-6059
▁democrats	-6060
▁gathering	-6061
▁sensitive	-6062
▁spaghetti	-6063
▁disconnect	-6064
▁embarrased	-6065
▁essentials	-6066
▁originally	-6067
▁pleasantly	-6068
▁respectful	-6069
▁transplant	-6070
▁overwhelmed	-6071
▁instructions	-6072
▁organization	-6073
▁unbelievable	-6074
▁conversations	-6075
oh	-6076
aws	-6077
bra	-6078
bur	-6079
cop	-6080
dem	-6081
esh	-6082
gar	-6083
gie	-6084
ihu	-6085
lif	-6086
omy	-6087
oni	-6088
pot	-6089
zen	-6090
▁00	-6091
anta	-6092
aped	-6093
bble	-6094
char	-6095
ends	-6096
foot	-6097
ista	-6098
lest	-6099
omed	-6100
sequ	-6101
west	-6102
▁avo	-6103
▁coy	-6104
▁cub	-6105
▁dom	-6106
▁dos	-6107
▁ooh	-6108
▁raw	-6109
▁vir	-6110
bbing	-6111
etime	-6112
neath	-6113
paper	-6114
unken	-6115
▁bost	-6116
▁brut	-6117
▁dove	-6118
▁drew	-6119
▁jury	-6120
▁lame	-6121
▁macs	-6122
▁mini	-6123
▁nach	-6124
▁pros	-6125
▁rome	-6126
▁slip	-6127
▁stab	-6128
▁tuna	-6129
▁vegg	-6130
▁zone	-6131
ulture	-6132
▁awoke	-6133
▁chees	-6134
▁chihu	-6135
▁cough	-6136
▁heads	-6137
▁incon	-6138
▁incor	-6139
▁mommy	-6140
▁nause	-6141
▁occup	-6142
▁opens	-6143
▁pharm	-6144
▁phase	-6145
▁rains	-6146
▁rainy	-6147
▁shred	-6148
▁spain	-6149
▁steam	-6150
▁texts	-6151
▁actors	-6152
▁artist	-6153
▁boxing	-6154
▁bumper	-6155
▁costco	-6156
▁grumpy	-6157
▁humble	-6158
▁insist	-6159
▁mature	-6160
▁necess	-6161
▁turbul	-6162
▁avoided	-6163
▁barista	-6164
▁bunnies	-6165
▁closest	-6166
▁consequ	-6167
▁consist	-6168
▁dieting	-6169
▁eagerly	-6170
▁extreme	-6171
▁mailman	-6172
▁mainten	-6173
▁objects	-6174
▁raising	-6175
▁affected	-6176
▁announce	-6177
▁belonged	-6178
▁carrying	-6179
▁chargers	-6180
▁incident	-6181
▁misunder	-6182
▁montreal	-6183
▁musician	-6184
▁projects	-6185
▁promises	-6186
▁romantic	-6187
▁toppings	-6188
▁treasure	-6189
▁warriors	-6190
▁australia	-6191
▁healthier	-6192
▁pepperoni	-6193
▁typically	-6194
▁aggravated	-6195
▁interstate	-6196
▁nightlight	-6197
▁officially	-6198
▁presenting	-6199
▁underneath	-6200
▁conditioning	-6201
▁interviewing	-6202
▁successfully	-6203
▁compassionate	-6204
▁disrespectful	-6205
nn	-6206
ahu	-6207
▁ot	-6208
eart	-6209
inct	-6210
iner	-6211
iors	-6212
ocur	-6213
ouri	-6214
▁cos	-6215
▁nic	-6216
▁wat	-6217
▁web	-6218
erole	-6219
gebra	-6220
otein	-6221
ously	-6222
stone	-6223
world	-6224
▁adul	-6225
▁cafe	-6226
▁eyed	-6227
▁funn	-6228
▁geor	-6229
▁jell	-6230
▁outl	-6231
▁page	-6232
▁pole	-6233
▁punk	-6234
▁soph	-6235
▁ugly	-6236
▁woah	-6237
▁wolf	-6238
lliant	-6239
urally	-6240
▁chips	-6241
▁entit	-6242
▁false	-6243
▁guide	-6244
▁holds	-6245
▁inher	-6246
▁jokes	-6247
▁noble	-6248
▁queen	-6249
▁signs	-6250
▁slice	-6251
▁title	-6252
▁trunk	-6253
ruction	-6254
▁bushes	-6255
▁comics	-6256
▁deeply	-6257
▁escape	-6258
▁estate	-6259
▁factor	-6260
▁gossip	-6261
▁miscar	-6262
▁mowing	-6263
▁newest	-6264
▁rolled	-6265
▁shakes	-6266
▁smells	-6267
▁theirs	-6268
▁volley	-6269
▁algebra	-6270
▁arguing	-6271
▁blocked	-6272
▁cleaner	-6273
▁distant	-6274
▁intimid	-6275
▁justice	-6276
▁kittens	-6277
▁playoff	-6278
▁protein	-6279
▁spooked	-6280
▁weights	-6281
▁arriving	-6282
▁blocking	-6283
▁chihuahu	-6284
▁disheart	-6285
▁doorstep	-6286
▁dropping	-6287
▁extended	-6288
▁pharmacy	-6289
▁services	-6290
▁unlocked	-6291
▁wrecking	-6292
▁brilliant	-6293
▁casserole	-6294
▁computers	-6295
▁cryptocur	-6296
▁interrupt	-6297
▁knowledge	-6298
▁preschool	-6299
▁religious	-6300
▁traumatic	-6301
▁repeatedly	-6302
▁thoroughly	-6303
▁turbulence	-6304
▁volleyball	-6305
▁butterflies	-6306
▁disneyworld	-6307
▁infuriating	-6308
▁miscarriage	-6309
▁unnecessary	-6310
rr	-6311
ara	-6312
ata	-6313
eve	-6314
gee	-6315
mit	-6316
ooo	-6317
▁64	-6318
▁ls	-6319
aire	-6320
anky	-6321
ateg	-6322
bled	-6323
cons	-6324
eeze	-6325
gots	-6326
iver	-6327
kill	-6328
rate	-6329
udge	-6330
▁bru	-6331
▁cpa	-6332
▁gum	-6333
▁lan	-6334
▁nut	-6335
▁unw	-6336
▁vit	-6337
aries	-6338
bucks	-6339
pting	-6340
usted	-6341
▁fold	-6342
▁gang	-6343
▁hunt	-6344
▁john	-6345
▁lamp	-6346
▁mate	-6347
▁mush	-6348
▁nood	-6349
▁recl	-6350
▁rink	-6351
▁sake	-6352
▁salt	-6353
▁shor	-6354
▁weed	-6355
▁wide	-6356
▁wire	-6357
encies	-6358
▁beans	-6359
▁bully	-6360
▁bunny	-6361
▁ducks	-6362
▁equip	-6363
▁hates	-6364
▁legos	-6365
▁moder	-6366
▁soooo	-6367
▁spook	-6368
▁valed	-6369
▁weigh	-6370
▁browns	-6371
▁chains	-6372
▁choked	-6373
▁cranky	-6374
▁famous	-6375
▁favour	-6376
▁joking	-6377
▁plates	-6378
▁racist	-6379
▁retake	-6380
▁shaken	-6381
▁shrimp	-6382
▁skinny	-6383
▁spaces	-6384
▁upside	-6385
fficient	-6386
ictorian	-6387
▁assumed	-6388
▁bullied	-6389
▁courses	-6390
▁culture	-6391
▁drunken	-6392
▁effects	-6393
▁errands	-6394
▁fathers	-6395
▁jackpot	-6396
▁maggots	-6397
▁painted	-6398
▁pajamas	-6399
▁plumber	-6400
▁settled	-6401
▁stocked	-6402
▁surreal	-6403
▁checkout	-6404
▁diabetes	-6405
▁elevator	-6406
▁exchange	-6407
▁incompet	-6408
▁kindness	-6409
▁mornings	-6410
▁someones	-6411
▁sticking	-6412
▁touching	-6413
▁tracking	-6414
▁naturally	-6415
▁poisoning	-6416
▁promising	-6417
▁starbucks	-6418
▁submitted	-6419
▁disturbing	-6420
▁inspection	-6421
▁babysitting	-6422
▁photographs	-6423
▁replacement	-6424
▁transmission	-6425
▁valedictorian	-6426
ami	-6427
chi	-6428
oul	-6429
ras	-6430
rex	-6431
rom	-6432
uro	-6433
zok	-6434
▁mt	-6435
adem	-6436
agna	-6437
free	-6438
iana	-6439
ibes	-6440
odel	-6441
osen	-6442
shed	-6443
suit	-6444
well	-6445
▁atl	-6446
▁fib	-6447
▁igu	-6448
▁jar	-6449
▁kim	-6450
▁mob	-6451
▁oof	-6452
▁pho	-6453
▁rav	-6454
▁sam	-6455
▁tum	-6456
ators	-6457
atory	-6458
enges	-6459
gment	-6460
inton	-6461
morse	-6462
ories	-6463
pleas	-6464
renal	-6465
shirt	-6466
▁curb	-6467
▁goin	-6468
▁muse	-6469
▁pace	-6470
▁weap	-6471
▁wing	-6472
▁among	-6473
▁angel	-6474
▁april	-6475
▁aston	-6476
▁burnt	-6477
▁cooks	-6478
▁costs	-6479
▁faced	-6480
▁flush	-6481
▁insan	-6482
▁intru	-6483
▁miami	-6484
▁pyrex	-6485
▁quilt	-6486
▁rocks	-6487
▁staff	-6488
▁vibes	-6489
essions	-6490
▁academ	-6491
▁apples	-6492
▁biting	-6493
▁bungee	-6494
▁burrit	-6495
▁chewed	-6496
▁clowns	-6497
▁consol	-6498
▁digest	-6499
▁hidden	-6500
▁hiring	-6501
▁immune	-6502
▁killer	-6503
▁millen	-6504
▁panama	-6505
▁perman	-6506
▁relive	-6507
▁strzok	-6508
▁swerve	-6509
▁trophy	-6510
▁waiter	-6511
▁address	-6512
▁adrenal	-6513
▁antique	-6514
▁backing	-6515
▁carried	-6516
▁compete	-6517
▁contrib	-6518
▁devoted	-6519
▁efforts	-6520
▁hallway	-6521
▁kissing	-6522
▁lasagna	-6523
▁planted	-6524
▁refuses	-6525
▁remorse	-6526
▁roaches	-6527
▁session	-6528
▁talents	-6529
▁variety	-6530
▁veggies	-6531
▁addicted	-6532
▁blankets	-6533
▁carefree	-6534
▁critters	-6535
▁entitled	-6536
▁feedback	-6537
▁instinct	-6538
▁judgment	-6539
▁saddened	-6540
▁scariest	-6541
▁smelling	-6542
▁swimsuit	-6543
▁treating	-6544
▁vomiting	-6545
▁cockroach	-6546
▁correctly	-6547
▁decorated	-6548
▁enjoyable	-6549
▁equipment	-6550
▁household	-6551
▁incorrect	-6552
▁infection	-6553
▁newspaper	-6554
▁overslept	-6555
▁receiving	-6556
▁challenges	-6557
▁contacting	-6558
▁individual	-6559
▁profession	-6560
▁skateboard	-6561
▁transition	-6562
▁cockroaches	-6563
▁commercials	-6564
▁destination	-6565
▁emergencies	-6566
▁interviewer	-6567
▁perspective	-6568
▁difficulties	-6569
▁grandmothers	-6570
ca	-6571
can	-6572
cip	-6573
▁26	-6574
▁hm	-6575
▁ly	-6576
aith	-6577
amel	-6578
ario	-6579
beat	-6580
dest	-6581
down	-6582
etto	-6583
fume	-6584
gile	-6585
iers	-6586
kids	-6587
olve	-6588
omet	-6589
ping	-6590
rete	-6591
ruct	-6592
term	-6593
umst	-6594
vert	-6595
word	-6596
▁bbq	-6597
▁dim	-6598
▁feb	-6599
▁jew	-6600
▁lux	-6601
▁nar	-6602
▁nes	-6603
▁pra	-6604
▁tap	-6605
agues	-6606
bbies	-6607
ingly	-6608
inity	-6609
olves	-6610
utter	-6611
▁asso	-6612
▁clog	-6613
▁dies	-6614
▁enem	-6615
▁gall	-6616
▁jeep	-6617
▁lion	-6618
▁mice	-6619
▁oooh	-6620
▁radi	-6621
▁sits	-6622
▁synd	-6623
▁taxi	-6624
▁west	-6625
agging	-6626
arming	-6627
istics	-6628
loaded	-6629
opilot	-6630
pelled	-6631
raging	-6632
ration	-6633
weight	-6634
▁admin	-6635
▁antsy	-6636
▁cloud	-6637
▁debts	-6638
▁funds	-6639
▁hasnt	-6640
▁lemon	-6641
▁pilot	-6642
▁pulls	-6643
▁redem	-6644
▁scout	-6645
▁skirt	-6646
▁tailg	-6647
▁tempt	-6648
aithful	-6649
▁annoys	-6650
▁boston	-6651
▁breeze	-6652
▁button	-6653
▁crisis	-6654
▁denied	-6655
▁dented	-6656
▁docile	-6657
▁exotic	-6658
▁forced	-6659
▁former	-6660
▁german	-6661
▁juggle	-6662
▁kimchi	-6663
▁marked	-6664
▁museum	-6665
▁orange	-6666
▁poured	-6667
▁secure	-6668
▁spooky	-6669
▁throws	-6670
▁timing	-6671
▁useful	-6672
mination	-6673
▁bugging	-6674
▁caramel	-6675
▁display	-6676
▁earning	-6677
▁fragile	-6678
▁grilled	-6679
▁jobless	-6680
▁longest	-6681
▁mansion	-6682
▁massive	-6683
▁midterm	-6684
▁perfume	-6685
▁regrets	-6686
▁rooting	-6687
▁sadness	-6688
▁trainer	-6689
▁traumat	-6690
▁admitted	-6691
▁appalled	-6692
▁behaving	-6693
▁chickens	-6694
▁childish	-6695
▁grandson	-6696
▁increase	-6697
▁infected	-6698
▁needless	-6699
▁pleasure	-6700
▁remained	-6701
▁scenario	-6702
▁shameful	-6703
▁stronger	-6704
▁autopilot	-6705
▁chihuahua	-6706
▁competing	-6707
▁creatures	-6708
▁developed	-6709
▁diagnosis	-6710
▁memorable	-6711
▁surprises	-6712
▁colleagues	-6713
▁convenient	-6714
▁counseling	-6715
▁increasing	-6716
▁influenced	-6717
▁redemption	-6718
▁registered	-6719
▁unfaithful	-6720
▁communicate	-6721
▁thunderstorms	-6722
cl	-6723
din	-6724
eem	-6725
nal	-6726
zzy	-6727
▁28	-6728
▁31	-6729
▁33	-6730
▁pi	-6731
anny	-6732
dies	-6733
eddy	-6734
face	-6735
inst	-6736
oooo	-6737
▁dug	-6738
▁ivy	-6739
▁pip	-6740
▁pod	-6741
▁rev	-6742
▁sup	-6743
▁unz	-6744
amond	-6745
anged	-6746
crast	-6747
going	-6748
icals	-6749
olina	-6750
uries	-6751
ville	-6752
▁aged	-6753
▁blog	-6754
▁brit	-6755
▁cans	-6756
▁dust	-6757
▁ears	-6758
▁fits	-6759
▁fuel	-6760
▁pops	-6761
▁purs	-6762
▁scan	-6763
▁slim	-6764
▁tack	-6765
▁tort	-6766
▁trap	-6767
ansion	-6768
igning	-6769
itable	-6770
season	-6771
▁actor	-6772
▁alert	-6773
▁aside	-6774
▁boots	-6775
▁broad	-6776
▁chess	-6777
▁clubs	-6778
▁degre	-6779
▁fears	-6780
▁fraud	-6781
▁freel	-6782
▁grows	-6783
▁heirl	-6784
▁herbs	-6785
▁hoard	-6786
▁inapp	-6787
▁legal	-6788
▁louis	-6789
▁minim	-6790
▁moves	-6791
▁rates	-6792
▁renov	-6793
▁route	-6794
▁scene	-6795
▁shelf	-6796
▁sides	-6797
▁spots	-6798
▁stars	-6799
▁towel	-6800
▁valid	-6801
▁walks	-6802
▁woken	-6803
▁wrest	-6804
▁yummy	-6805
lifting	-6806
ounting	-6807
▁allows	-6808
▁associ	-6809
▁bracel	-6810
▁campus	-6811
▁chosen	-6812
▁collap	-6813
▁comedy	-6814
▁contra	-6815
▁counts	-6816
▁enjoys	-6817
▁fellow	-6818
▁guests	-6819
▁inches	-6820
▁inspir	-6821
▁landsc	-6822
▁latest	-6823
▁lizard	-6824
▁monkey	-6825
▁nachos	-6826
▁nicest	-6827
▁olives	-6828
▁pastor	-6829
▁poorly	-6830
▁remote	-6831
▁resist	-6832
▁scores	-6833
▁sneaky	-6834
▁spends	-6835
▁status	-6836
▁submit	-6837
▁sweets	-6838
▁tshirt	-6839
▁tucked	-6840
venience	-6841
▁allergy	-6842
▁breakup	-6843
▁cartoon	-6844
▁clogged	-6845
▁diamond	-6846
▁enraged	-6847
▁freakin	-6848
▁freezer	-6849
▁greatly	-6850
▁hobbies	-6851
▁jogging	-6852
▁peoples	-6853
▁periods	-6854
▁require	-6855
▁technic	-6856
▁upgrade	-6857
▁advanced	-6858
▁attended	-6859
▁bragging	-6860
▁carolina	-6861
▁concrete	-6862
▁cornhole	-6863
▁coverage	-6864
▁demanded	-6865
▁intruder	-6866
▁japanese	-6867
▁knocking	-6868
▁motivate	-6869
▁procrast	-6870
▁products	-6871
▁reported	-6872
▁reunited	-6873
▁salesman	-6874
▁unzipped	-6875
▁batteries	-6876
▁blessings	-6877
▁buildings	-6878
▁conscious	-6879
▁exhausted	-6880
▁expansion	-6881
▁gardening	-6882
▁grandkids	-6883
▁headaches	-6884
▁intuition	-6885
▁investing	-6886
▁messaging	-6887
▁milestone	-6888
▁operation	-6889
▁preseason	-6890
▁realistic	-6891
▁therapist	-6892
▁accounting	-6893
▁candidates	-6894
▁commitment	-6895
▁strawberry	-6896
▁challenging	-6897
▁recognition	-6898
▁consequences	-6899
▁occasionally	-6900
▁pancreatitis	-6901
▁inappropriate	-6902
▁cryptocurrency	-6903
pr	-6904
py	-6905
dad	-6906
gus	-6907
kea	-6908
lor	-6909
ral	-6910
sty	-6911
the	-6912
ura	-6913
ases	-6914
bull	-6915
gets	-6916
itsu	-6917
lleg	-6918
maid	-6919
nite	-6920
odes	-6921
ubby	-6922
▁350	-6923
▁90'	-6924
▁eve	-6925
▁fry	-6926
▁soo	-6927
alian	-6928
ckets	-6929
craft	-6930
cumst	-6931
elity	-6932
enger	-6933
field	-6934
getic	-6935
point	-6936
ptoms	-6937
shine	-6938
usion	-6939
while	-6940
▁2019	-6941
▁boom	-6942
▁caut	-6943
▁dedu	-6944
▁eter	-6945
▁grey	-6946
▁hook	-6947
▁ikea	-6948
▁liqu	-6949
▁neut	-6950
▁obed	-6951
▁peak	-6952
▁phew	-6953
▁puke	-6954
▁redo	-6955
▁toll	-6956
adillo	-6957
ancing	-6958
mother	-6959
veland	-6960
▁ambul	-6961
▁autom	-6962
▁auton	-6963
▁cents	-6964
▁clock	-6965
▁clums	-6966
▁drain	-6967
▁faces	-6968
▁fibro	-6969
▁filed	-6970
▁frank	-6971
▁graph	-6972
▁harsh	-6973
▁hellp	-6974
▁hyper	-6975
▁illeg	-6976
▁image	-6977
▁jitsu	-6978
▁locks	-6979
▁oddly	-6980
▁pains	-6981
▁patio	-6982
▁rally	-6983
▁reall	-6984
▁recru	-6985
▁river	-6986
▁rooms	-6987
▁snugg	-6988
▁sober	-6989
▁swift	-6990
▁unner	-6991
▁vitam	-6992
adillac	-6993
repared	-6994
▁batman	-6995
▁brutal	-6996
▁bubble	-6997
▁camper	-6998
▁chubby	-6999
▁dealer	-7000
▁deploy	-7001
▁dining	-7002
▁esteem	-7003
▁fondly	-7004
▁haters	-7005
▁hotdog	-7006
▁hugged	-7007
▁intell	-7008
▁liking	-7009
▁nursed	-7010
▁prayed	-7011
▁silver	-7012
▁soaked	-7013
▁stream	-7014
▁tackle	-7015
▁tipped	-7016
▁waters	-7017
▁wishes	-7018
pleasant	-7019
▁atlanta	-7020
▁bullets	-7021
▁burning	-7022
▁coolest	-7023
▁created	-7024
▁donated	-7025
▁dragons	-7026
▁escaped	-7027
▁guarant	-7028
▁italian	-7029
▁magical	-7030
▁midwest	-7031
▁mustang	-7032
▁pitbull	-7033
▁princip	-7034
▁remeber	-7035
▁remodel	-7036
▁stormed	-7037
▁suprise	-7038
▁trapped	-7039
▁useless	-7040
▁warrant	-7041
▁balloons	-7042
▁cadillac	-7043
▁circumst	-7044
▁creating	-7045
▁episodes	-7046
▁gunshots	-7047
▁husbands	-7048
▁included	-7049
▁insanely	-7050
▁interact	-7051
▁leftover	-7052
▁occupied	-7053
▁politics	-7054
▁requires	-7055
▁roadkill	-7056
▁solution	-7057
▁sparring	-7058
▁storming	-7059
▁stumbled	-7060
▁sunshine	-7061
▁symptoms	-7062
▁answering	-7063
▁armadillo	-7064
▁borrowing	-7065
▁chemicals	-7066
▁christian	-7067
▁cleveland	-7068
▁influence	-7069
▁interests	-7070
▁rejection	-7071
▁repeating	-7072
▁separated	-7073
▁adrenaline	-7074
▁collecting	-7075
▁employment	-7076
▁mosquitoes	-7077
▁reasonable	-7078
▁unpleasant	-7079
▁washington	-7080
▁assignments	-7081
▁humiliating	-7082
▁incompetent	-7083
▁researching	-7084
▁tournaments	-7085
▁particularly	-7086
▁circumstances	-7087
▁communication	-7088
▁determination	-7089
rs	-7090
acu	-7091
afe	-7092
imm	-7093
▁ny	-7094
aren	-7095
bast	-7096
bike	-7097
cere	-7098
chup	-7099
cube	-7100
ffed	-7101
fred	-7102
nuts	-7103
uits	-7104
▁80'	-7105
▁coz	-7106
▁jam	-7107
▁joe	-7108
▁log	-7109
▁paw	-7110
▁que	-7111
▁scu	-7112
▁sue	-7113
▁tub	-7114
▁zip	-7115
ament	-7116
build	-7117
child	-7118
eding	-7119
eries	-7120
fredo	-7121
gling	-7122
ibiot	-7123
oored	-7124
rings	-7125
ronic	-7126
▁audi	-7127
▁bent	-7128
▁craz	-7129
▁cuts	-7130
▁fist	-7131
▁heav	-7132
▁hose	-7133
▁hugs	-7134
▁mart	-7135
▁nick	-7136
▁sang	-7137
▁sets	-7138
▁vice	-7139
aughty	-7140
ergies	-7141
iances	-7142
immune	-7143
lights	-7144
▁artic	-7145
▁brief	-7146
▁cases	-7147
▁colon	-7148
▁comic	-7149
▁crawl	-7150
▁curse	-7151
▁curve	-7152
▁dates	-7153
▁dealt	-7154
▁devil	-7155
▁disab	-7156
▁dryer	-7157
▁error	-7158
▁hillb	-7159
▁jacks	-7160
▁jello	-7161
▁knees	-7162
▁newer	-7163
▁paris	-7164
▁prett	-7165
▁refer	-7166
▁teens	-7167
▁trade	-7168
▁tutor	-7169
bastian	-7170
olences	-7171
reshing	-7172
▁advise	-7173
▁author	-7174
▁beings	-7175
▁bullet	-7176
▁castle	-7177
▁cereal	-7178
▁cinema	-7179
▁cooler	-7180
▁coyote	-7181
▁engage	-7182
▁gotcha	-7183
▁grudge	-7184
▁horses	-7185
▁iguana	-7186
▁karate	-7187
▁pacing	-7188
▁remove	-7189
▁resour	-7190
▁rushed	-7191
▁slower	-7192
▁source	-7193
▁tested	-7194
▁thirty	-7195
▁unsafe	-7196
▁upsets	-7197
▁yearly	-7198
▁alfredo	-7199
▁bathing	-7200
▁candies	-7201
▁claimed	-7202
▁clinton	-7203
▁compens	-7204
▁concent	-7205
▁degrees	-7206
▁digging	-7207
▁drowned	-7208
▁excuses	-7209
▁expense	-7210
▁explode	-7211
▁falcons	-7212
▁fasting	-7213
▁floored	-7214
▁january	-7215
▁ketchup	-7216
▁landing	-7217
▁leaking	-7218
▁massage	-7219
▁naughty	-7220
▁plastic	-7221
▁qualify	-7222
▁raccoon	-7223
▁ripping	-7224
▁seasons	-7225
▁snuggle	-7226
▁sprayed	-7227
▁wasting	-7228
▁antibiot	-7229
▁cautious	-7230
▁criminal	-7231
▁dirtbike	-7232
▁earrings	-7233
▁entirely	-7234
▁flooding	-7235
▁gamecube	-7236
▁grandmas	-7237
▁heirloom	-7238
▁ignoring	-7239
▁jealousy	-7240
▁meetings	-7241
▁overchar	-7242
▁panicked	-7243
▁partying	-7244
▁presence	-7245
▁quitting	-7246
▁recovery	-7247
▁sickened	-7248
▁allergies	-7249
▁doughnuts	-7250
▁hamburger	-7251
▁introduce	-7252
▁neglected	-7253
▁passenger	-7254
▁replacing	-7255
▁sebastian	-7256
▁sentiment	-7257
▁snowboard	-7258
▁temporary	-7259
▁thousands	-7260
▁vegetable	-7261
▁affordable	-7262
▁appliances	-7263
▁autoimmune	-7264
▁chocolates	-7265
▁decorating	-7266
▁grandchild	-7267
▁investment	-7268
▁meaningful	-7269
▁playground	-7270
▁refreshing	-7271
▁relaxation	-7272
▁sandwiches	-7273
▁statistics	-7274
▁traditions	-7275
▁unprepared	-7276
▁appropriate	-7277
▁condolences	-7278
▁generations	-7279
▁recommended	-7280
▁congratulation	-7281
ds	-7282
iu	-7283
pm	-7284
cil	-7285
ein	-7286
fes	-7287
fir	-7288
gin	-7289
hhh	-7290
mes	-7291
▁36	-7292
▁99	-7293
head	-7294
icop	-7295
load	-7296
luck	-7297
rome	-7298
stic	-7299
ttes	-7300
ucky	-7301
▁250	-7302
▁arc	-7303
▁arr	-7304
▁dun	-7305
▁ens	-7306
▁fle	-7307
▁gap	-7308
▁irs	-7309
▁jiu	-7310
▁nab	-7311
▁ore	-7312
▁sav	-7313
▁tan	-7314
▁unh	-7315
adium	-7316
aware	-7317
eezed	-7318
gical	-7319
imony	-7320
ombie	-7321
omore	-7322
ppers	-7323
retch	-7324
stick	-7325
unker	-7326
▁ache	-7327
▁airl	-7328
▁anon	-7329
▁ants	-7330
▁arts	-7331
▁barg	-7332
▁ebay	-7333
▁ewww	-7334
▁gram	-7335
▁hmmm	-7336
▁iwas	-7337
▁jugg	-7338
▁mand	-7339
▁nike	-7340
▁peel	-7341
▁phob	-7342
▁piss	-7343
▁pudd	-7344
▁sung	-7345
▁verb	-7346
▁vict	-7347
▁wand	-7348
▁ward	-7349
alling	-7350
uctant	-7351
▁banks	-7352
▁boxer	-7353
▁chefs	-7354
▁cliff	-7355
▁drums	-7356
▁fever	-7357
▁gains	-7358
▁gears	-7359
▁hairs	-7360
▁joint	-7361
▁march	-7362
▁medal	-7363
▁novel	-7364
▁olive	-7365
▁poker	-7366
▁roads	-7367
▁seven	-7368
▁stunk	-7369
▁subst	-7370
▁toast	-7371
▁venom	-7372
▁wheat	-7373
▁worms	-7374
icopter	-7375
inating	-7376
▁attach	-7377
▁banana	-7378
▁beauty	-7379
▁calmed	-7380
▁checks	-7381
▁crowds	-7382
▁cursed	-7383
▁discou	-7384
▁doggie	-7385
▁doomed	-7386
▁gallon	-7387
▁ghetto	-7388
▁greedy	-7389
▁infant	-7390
▁insult	-7391
▁lasted	-7392
▁mashed	-7393
▁overfl	-7394
▁planet	-7395
▁possum	-7396
▁profit	-7397
▁signal	-7398
▁singer	-7399
▁steady	-7400
▁supper	-7401
▁supply	-7402
▁tablet	-7403
▁trials	-7404
▁undies	-7405
▁videog	-7406
▁winner	-7407
▁wisdom	-7408
▁yellow	-7409
▁zombie	-7410
cription	-7411
ourished	-7412
▁beaming	-7413
▁benefit	-7414
▁candles	-7415
▁costume	-7416
▁cubicle	-7417
▁delight	-7418
▁details	-7419
▁monthly	-7420
▁mustard	-7421
▁olympic	-7422
▁privacy	-7423
▁renewed	-7424
▁silence	-7425
▁smacked	-7426
▁stadium	-7427
▁studios	-7428
▁tearing	-7429
▁tempted	-7430
▁warming	-7431
▁wrapped	-7432
istration	-7433
▁activity	-7434
▁bleeding	-7435
▁concerts	-7436
▁equipped	-7437
▁facility	-7438
▁figuring	-7439
▁fortnite	-7440
▁gigantic	-7441
▁lipstick	-7442
▁meantime	-7443
▁notified	-7444
▁provider	-7445
▁refunded	-7446
▁shipping	-7447
▁syndrome	-7448
▁traveled	-7449
▁wondered	-7450
▁ambulance	-7451
▁breathing	-7452
▁complaint	-7453
▁disappear	-7454
▁inherited	-7455
▁maternity	-7456
▁occasions	-7457
▁performed	-7458
▁published	-7459
▁reluctant	-7460
▁requested	-7461
▁resources	-7462
▁sophomore	-7463
▁specially	-7464
▁testimony	-7465
▁anticipate	-7466
▁astonished	-7467
▁cigarettes	-7468
▁confronted	-7469
▁connection	-7470
▁helicopter	-7471
▁interrupts	-7472
▁leadership	-7473
▁overweight	-7474
▁performing	-7475
▁regardless	-7476
▁satisfying	-7477
▁millionaire	-7478
▁politicians	-7479
▁construction	-7480
▁inconvenient	-7481
▁intimidating	-7482
▁unemployment	-7483
▁accomplishments	-7484
50	-7485
ht	-7486
ij	-7487
nb	-7488
vo	-7489
any	-7490
ept	-7491
gun	-7492
ica	-7493
lic	-7494
mph	-7495
pse	-7496
rup	-7497
sut	-7498
ula	-7499
▁75	-7500
athl	-7501
bits	-7502
ches	-7503
cted	-7504
ears	-7505
ette	-7506
feed	-7507
iams	-7508
ilad	-7509
othe	-7510
ques	-7511
race	-7512
reme	-7513
rics	-7514
tles	-7515
urer	-7516
▁ada	-7517
▁der	-7518
▁pad	-7519
▁sha	-7520
▁sle	-7521
armed	-7522
asses	-7523
conut	-7524
opard	-7525
pered	-7526
reece	-7527
steps	-7528
think	-7529
vable	-7530
▁beta	-7531
▁chir	-7532
▁clin	-7533
▁cust	-7534
▁data	-7535
▁fifa	-7536
▁gull	-7537
▁guts	-7538
▁kart	-7539
▁kong	-7540
▁maln	-7541
▁mama	-7542
▁mule	-7543
▁odds	-7544
▁prec	-7545
▁rash	-7546
▁skis	-7547
▁snot	-7548
▁tony	-7549
▁twin	-7550
▁virt	-7551
▁wooh	-7552
eville	-7553
shield	-7554
ucture	-7555
verted	-7556
▁civil	-7557
▁confl	-7558
▁diner	-7559
▁enemy	-7560
▁evacu	-7561
▁excit	-7562
▁exter	-7563
▁fails	-7564
▁grace	-7565
▁hadnt	-7566
▁india	-7567
▁jewel	-7568
▁kicks	-7569
▁leads	-7570
▁liber	-7571
▁lungs	-7572
▁maker	-7573
▁mines	-7574
▁moldy	-7575
▁neuro	-7576
▁packs	-7577
▁picky	-7578
▁retri	-7579
▁roast	-7580
▁robin	-7581
▁robot	-7582
▁sixth	-7583
▁spill	-7584
▁stere	-7585
▁teddy	-7586
▁unfam	-7587
▁voted	-7588
▁werew	-7589
▁whoop	-7590
aughter	-7591
entions	-7592
instein	-7593
working	-7594
▁bodies	-7595
▁canned	-7596
▁decade	-7597
▁desire	-7598
▁drawer	-7599
▁fought	-7600
▁frozen	-7601
▁greece	-7602
▁habits	-7603
▁insect	-7604
▁keeper	-7605
▁levels	-7606
▁medium	-7607
▁melted	-7608
▁myster	-7609
▁parach	-7610
▁phobia	-7611
▁playst	-7612
▁pricey	-7613
▁proced	-7614
▁puddle	-7615
▁raises	-7616
▁raviol	-7617
▁receip	-7618
▁resume	-7619
▁roomie	-7620
▁satisf	-7621
▁solved	-7622
▁sticks	-7623
▁streak	-7624
▁supple	-7625
▁triple	-7626
▁unfold	-7627
▁valent	-7628
▁vision	-7629
atically	-7630
▁arrival	-7631
▁attempt	-7632
▁bigfoot	-7633
▁british	-7634
▁cheerle	-7635
▁cleared	-7636
▁clients	-7637
▁coconut	-7638
▁concern	-7639
▁crawled	-7640
▁finance	-7641
▁freeway	-7642
▁manners	-7643
▁outfits	-7644
▁outlook	-7645
▁pickles	-7646
▁shorter	-7647
▁sincere	-7648
▁smarter	-7649
▁speaker	-7650
▁stretch	-7651
▁suspect	-7652
▁triathl	-7653
▁unaware	-7654
▁unusual	-7655
▁various	-7656
▁absolute	-7657
▁adulting	-7658
▁autonomy	-7659
▁boarding	-7660
▁bracelet	-7661
▁bullying	-7662
▁cartoons	-7663
▁constant	-7664
▁crushing	-7665
▁daunting	-7666
▁deceased	-7667
▁drowning	-7668
▁economic	-7669
▁entering	-7670
▁grinding	-7671
▁grounded	-7672
▁gullible	-7673
▁mistaken	-7674
▁overtime	-7675
▁playoffs	-7676
▁skipping	-7677
▁soulmate	-7678
▁speeches	-7679
▁squirrel	-7680
▁stranded	-7681
▁williams	-7682
▁winnings	-7683
ifications	-7684
▁asheville	-7685
▁birthdays	-7686
▁carefully	-7687
▁desperate	-7688
▁economics	-7689
▁favourite	-7690
▁footsteps	-7691
▁housework	-7692
▁investors	-7693
▁parenting	-7694
▁permanent	-7695
▁sleepover	-7696
▁spiderman	-7697
▁structure	-7698
▁experiment	-7699
▁suspicious	-7700
▁treatments	-7701
▁unfamiliar	-7702
▁windshield	-7703
▁electricity	-7704
▁intentional	-7705
▁investigate	-7706
▁malnourished	-7707
▁administration	-7708
te	-7709
za	-7710
aps	-7711
asp	-7712
bon	-7713
ded	-7714
hal	-7715
iel	-7716
ini	-7717
mel	-7718
met	-7719
pes	-7720
por	-7721
ram	-7722
ubl	-7723
▁27	-7724
▁29	-7725
▁cs	-7726
▁oy	-7727
▁um	-7728
copa	-7729
deal	-7730
esus	-7731
flip	-7732
imes	-7733
inos	-7734
izes	-7735
otle	-7736
owed	-7737
path	-7738
rels	-7739
rica	-7740
umel	-7741
▁150	-7742
▁aaa	-7743
▁abc	-7744
▁ain	-7745
▁alw	-7746
▁ceo	-7747
▁fab	-7748
▁fas	-7749
▁glo	-7750
▁idk	-7751
▁jog	-7752
▁lob	-7753
▁pin	-7754
▁tay	-7755
▁tel	-7756
▁vul	-7757
▁wid	-7758
▁wii	-7759
andem	-7760
anked	-7761
ansas	-7762
ffled	-7763
force	-7764
grown	-7765
igent	-7766
inate	-7767
power	-7768
ublic	-7769
▁2017	-7770
▁arch	-7771
▁brat	-7772
▁core	-7773
▁dare	-7774
▁entr	-7775
▁epic	-7776
▁fash	-7777
▁inev	-7778
▁jord	-7779
▁lego	-7780
▁loaf	-7781
▁lugg	-7782
▁mask	-7783
▁mode	-7784
▁owns	-7785
▁peru	-7786
▁rang	-7787
▁rats	-7788
▁rose	-7789
▁rust	-7790
▁tote	-7791
▁unac	-7792
▁vill	-7793
idency	-7794
ounded	-7795
ounter	-7796
▁asian	-7797
▁bears	-7798
▁bikes	-7799
▁biops	-7800
▁bouqu	-7801
▁bride	-7802
▁carts	-7803
▁categ	-7804
▁chili	-7805
▁delay	-7806
▁eleph	-7807
▁films	-7808
▁gamer	-7809
▁ideal	-7810
▁ident	-7811
▁ignor	-7812
▁impat	-7813
▁keyed	-7814
▁lanai	-7815
▁lifes	-7816
▁loser	-7817
▁nanny	-7818
▁newly	-7819
▁plain	-7820
▁rapid	-7821
▁roses	-7822
▁salon	-7823
▁sneak	-7824
▁sorta	-7825
▁spell	-7826
▁stack	-7827
▁vivid	-7828
▁wifes	-7829
▁africa	-7830
▁anonym	-7831
▁aspect	-7832
▁begged	-7833
▁belive	-7834
▁bucket	-7835
▁clinic	-7836
▁cooper	-7837
▁coping	-7838
▁create	-7839
▁garlic	-7840
▁heater	-7841
▁ladder	-7842
▁larger	-7843
▁lifted	-7844
▁marvel	-7845
▁mighty	-7846
▁mobile	-7847
▁ordeal	-7848
▁orders	-7849
▁owning	-7850
▁peeing	-7851
▁pickup	-7852
▁scient	-7853
▁shaved	-7854
▁shoved	-7855
▁silent	-7856
▁spaced	-7857
▁stereo	-7858
▁tandem	-7859
▁taylor	-7860
▁toyota	-7861
▁violin	-7862
▁warned	-7863
▁weekly	-7864
▁wooden	-7865
feedback	-7866
interest	-7867
▁approve	-7868
▁baffled	-7869
▁catfish	-7870
▁charges	-7871
▁command	-7872
▁confide	-7873
▁contain	-7874
▁cozumel	-7875
▁fashion	-7876
▁fearful	-7877
▁georgia	-7878
▁heavily	-7879
▁include	-7880
▁initial	-7881
▁jeopard	-7882
▁luggage	-7883
▁monitor	-7884
▁muscles	-7885
▁mystery	-7886
▁pooping	-7887
▁precaut	-7888
▁proceed	-7889
▁receipt	-7890
▁ruining	-7891
▁smiling	-7892
▁sneezed	-7893
▁thanked	-7894
▁wouldve	-7895
▁audience	-7896
▁backflip	-7897
▁brighter	-7898
▁chipotle	-7899
▁choosing	-7900
▁comments	-7901
▁congress	-7902
▁costumes	-7903
▁craziest	-7904
▁darkness	-7905
▁deciding	-7906
▁destruct	-7907
▁eternity	-7908
▁humidity	-7909
▁juggling	-7910
▁managers	-7911
▁official	-7912
▁password	-7913
▁refusing	-7914
▁republic	-7915
▁sickness	-7916
▁spilling	-7917
▁unpacked	-7918
▁watermel	-7919
▁weighing	-7920
▁affection	-7921
▁amazingly	-7922
▁collector	-7923
▁demanding	-7924
▁depending	-7925
▁documents	-7926
▁encounter	-7927
▁explained	-7928
▁inspected	-7929
▁musicians	-7930
▁pointless	-7931
▁regretted	-7932
▁relieving	-7933
▁responded	-7934
▁supercopa	-7935
▁background	-7936
▁contractor	-7937
▁disability	-7938
▁discussing	-7939
▁installing	-7940
▁intentions	-7941
▁punishment	-7942
▁ultimately	-7943
▁conditioner	-7944
▁	-7945
e	-7946
t	-7947
o	-7948
i	-7949
a	-7950
n	-7951
s	-7952
r	-7953
h	-7954
m	-7955
u	-7956
d	-7957
l	-7958
g	-7959
y	-7960
w	-7961
c	-7962
:	-7963
f	-7964
.	-7965
p	-7966
b	-7967
k	-7968
|	-7969
v	-7970
'	-7971
A	-7972
C	-7973
E	-7974
S	-7975
,	-7976
!	-7977
?	-7978
j	-7979
x	-7980
z	-7981
0	-7982
q	-7983
1	-7984
2	-7985
5	-7986
3	-7987
4	-7988
6	-7989
8	-7990
9	-7991
7	-7992
